#version: dm-bpe-sennrich-2016
e </w>
t h
, </w>
t </w>
s </w>
d </w>
o u
e r
y </w>
i n
: </w>
a n
o r
o </w>
. </w>
e n
a r
o n
l l
h a
th e</w>
i s</w>
f </w>
e s
y ou
I </w>
ll </w>
t o</w>
an d</w>
o w
e a
e ,</w>
r </w>
in g
w i
o m
; </w>
er </w>
s t
o f</w>
th </w>
h i
or </w>
v e</w>
a </w>
n o
c h
m y</w>
in </w>
s e
h e</w>
? </w>
l i
a t</w>
ing </w>
th e
r e
s t</w>
you </w>
! </w>
A n
e ar
t i
o o
en </w>
d ,</w>
g h
r i
m a
s ,</w>
e d</w>
r a
no t</w>
th at</w>
m </w>
An d</w>
' s</w>
on </w>
t ,</w>
m e</w>
l e
y ,</w>
l d</w>
ow </w>
ou </w>
h is</w>
a s</w>
l a
i r
u t</w>
ha t</w>
wi th</w>
e s</w>
u r
s h
b e</w>
an </w>
you r</w>
b e
O :</w>
k </w>
r o
i t</w>
d i
er e</w>
ch </w>
k e</w>
f or</w>
u n
E N
s e</w>
e .</w>
I N
f or
f a
ha ve</w>
l </w>
c e</w>
e e
S :</w>
T h
i t
s a
c om
ou r</w>
a t
th is</w>
A R
' d</w>
n </w>
th ou</w>
l e</w>
l o
th er
w h
t a
I O:</w>
s ha
th y</w>
s p
ou ld</w>
l y</w>
r ea
s u
en t
W h
U S:</w>
wi ll</w>
b ut</w>
m e
om </w>
T he</w>
c on
c a
ar e</w>
r u
s i
T o</w>
w or
w e
n e
oo d</w>
i r</w>
d e
w a
th er</w>
d a
m or
b y</w>
m i
o l
c e
U C
p </w>
sha ll</w>
s .</w>
a ll</w>
v er
d .</w>
hi m</w>
ear </w>
s o</w>
IN G
m an
ou n
m u
A N
d s</w>
c k
l or
E R
O R
w e</w>
r es
m o
t er
e t</w>
se l
gh t</w>
E T
r om</w>
d o</w>
o ,</w>
T hat</w>
p o
h er</w>
q u
hi m
k n
v i
' </w>
t e
p a
n o</w>
ou r
' ll</w>
b l
A :</w>
es t</w>
w hat</w>
g a
K ING
y .</w>
on e</w>
t o
hi ch</w>
d o
es s</w>
e l
c i
B ut</w>
t .</w>
on g
b o
f rom</w>
h er
en t</w>
f i
u s</w>
th ou
s ir
a l
I C
w ar
g ood</w>
es ,</w>
d ea
i f</w>
O L
w as</w>
u p
h ea
f u
E L
h ear
l ea
f e
I US:</w>
KING </w>
AR D
om e</w>
w ould</w>
t t
F or</w>
m in
ou s</w>
the ir</w>
- -
p ar
S T
M y</w>
r ow
c e,</w>
o f
v er</w>
W i
the y</w>
a m</w>
the e</w>
v e
I 'll</w>
r an
p ro
h o
E :</w>
g i
th in
d e</w>
g e</w>
gh t
O N
mor e</w>
m e,</w>
i s
b le</w>
p er
d ;</w>
t ru
u s
d er
c k</w>
W hat</w>
ll ,</w>
g ra
s w
en ,</w>
d :</w>
b ro
A s</w>
s he</w>
I I
w ere</w>
ha th</w>
A </w>
b a
s o
h e
on ,</w>
gh </w>
H a
li ke</w>
ma ke</w>
p e
g e
th ,</w>
' t
you ,</w>
k ing
ARD </w>
t s</w>
th an</w>
R O
g o
T IO:</w>
d u
w </w>
n i
p r
n a
ma y</w>
ET :</w>
mu st</w>
A U
le t</w>
com e</w>
Y </w>
E </w>
Y ou</w>
the m</w>
ow ,</w>
en d</w>
ga in
ir st</w>
s ;</w>
er e
sh ould</w>
f ri
up on</w>
s :</w>
n ow</w>
m b
sp ea
w hich</w>
ou t</w>
for e</w>
K :</w>
I f</w>
i d</w>
C A
p p
IC H
ow n</w>
m p
l an
R ICH
v en</w>
h ow</w>
d es
c an
th en</w>
h an
en ce</w>
U K
D UK
ha d</w>
DUK E</w>
st a
m ar
es e</w>
h on
kn ow</w>
g u
a c
EN TIO:</w>
G o
ER :</w>
r y</w>
O </w>
o se</w>
e y
p la
Y :</w>
fu l</w>
s ome</w>
i g
O ,</w>
ver y</w>
t 's</w>
m an</w>
li f
IN C
H e</w>
wh en</w>
om e
ur e</w>
ti on</w>
t y</w>
t ed</w>
s on
l oo
en d
di d</w>
c u
ther ,</w>
sir ,</w>
sa y</w>
h ere</w>
g ent
e x
sel f
ow n
d y</w>
A B
st er
W hich</w>
su ch</w>
st i
k ,</w>
a l</w>
v es</w>
ta ke</w>
sel f</w>
o p
i l
a gain
sh </w>
v e,</w>
t :</w>
-- </w>
ther e
mo st</w>
m ,</w>
lo ve</w>
I n</w>
th ese</w>
L O
k ing</w>
gi ve</w>
I :</w>
y et</w>
p ri
ch ar
Wi th</w>
RICH ARD</w>
s c
c oun
F irst</w>
E ST
se e</w>
p ra
UC H
we ll</w>
O f</w>
v o
th ing</w>
c hi
UC EST
UCEST ER:</w>
LO UCESTER:</w>
G LOUCESTER:</w>
T his</w>
ti on
ee t</w>
E EN
v en
L or
y ;</w>
se d</w>
e ;</w>
M a
L I
y :</w>
s in
b u
om e,</w>
s er
ou l
c an</w>
V INC
VINC ENTIO:</w>
U EEN
Q UEEN
M ar
d s,</w>
O F
OF </w>
d ?</w>
the e,</w>
st ,</w>
H ow</w>
b rea
w hi
lor d,</w>
Th ou</w>
H EN
g o</w>
e :</w>
d 's</w>
S e
t e</w>
an y</w>
t u
ti me</w>
s e,</w>
l t</w>
a f
in d</w>
te ll</w>
g rea
d er</w>
S o</w>
R Y</w>
HEN RY</w>
't is</w>
t er</w>
ing ,</w>
f o
E S
u p</w>
r ou
b an
a d
we ll
min e</w>
I s</w>
OR I
v ed</w>
n g
c e.</w>
th ere</w>
ma de</w>
er :</w>
s !</w>
QUEEN </w>
p re
ne ver</w>
j o
d !</w>
a p
E S:</w>
a b
Y our</w>
Y OR
YOR K:</w>
to o</w>
p res
ri e
W e</w>
o ld</w>
ar t</w>
W ha
IN IUS:</w>
m er
se e
ong </w>
u se</w>
li e
k s</w>
l ess</w>
j u
P ET
s on</w>
l u
I t</w>
d ee
' st</w>
t ra
f ar
e ?</w>
E D
ED W
' T
wa y</w>
t ;</w>
h ear</w>
Wh y,</w>
R i
G R
mu ch</w>
T H
tt er</w>
s en
s ?</w>
es .</w>
U M
M I
p lea
m e.</w>
M EN
L UC
L E
thin k</w>
m y
I S
no ble</w>
m en
er ,</w>
can not</w>
EL L
him ,</w>
at e</w>
do th</w>
con d</w>
t ter
qu e
i ti
er s</w>
a ll
B e
t w
m on
M E
E d
h ou
RO ME
ROME O:</w>
O r</w>
Ed war
v an
it .</w>
be en</w>
W e
N o
MEN EN
MENEN IUS:</w>
st an
p ea
B y</w>
wh ere</w>
a y,</w>
w om
c t</w>
t ur
oun d</w>
o ther</w>
b ea
UCH IO:</w>
R UCHIO:</w>
PET RUCHIO:</w>
t or
l e,</w>
i t,</w>
an g
a s
O M
Go d</w>
spea k</w>
pr in
n or</w>
f l
' d,</w>
t ri
Wh en</w>
s or
r e</w>
on e,</w>
him .</w>
e !</w>
s hi
s ea
r ow</w>
ne w
C ome,</w>
A y,</w>
ON T
M AR
H A
C l
y !</w>
n ess</w>
Wh ere</w>
ORI OL
ORIOL AN
C ORIOLAN
fa ther
be ing</w>
Se cond</w>
CORIOLAN US:</w>
you .</w>
v ing</w>
man :</w>
th i
d r
ck ,</w>
th .</w>
l ,</w>
h ar
fa ir</w>
c row
z en
t oo
f oo
e ver</w>
R ome
B A
y ?</w>
ear s</w>
re d</w>
it y</w>
da u
c es
m en</w>
i sh
e 's</w>
c o
bl oo
y s</w>
no t,</w>
ing s</w>
gent le
g ar
IN A:</w>
Lor d</w>
' er</w>
t un
m ent
ll ow
b es
I V
D :</w>
u s,</w>
of f
grea t</w>
II I:</w>
you r
wi f
se .</w>
Th an</w>
' t</w>
the m
st er</w>
ha st</w>
b r
t ?</w>
g e,</w>
en ce
b ra
W ar
c ur
wh o</w>
t en
sw eet</w>
se :</w>
e p
be g
War wi
en e
d st</w>
U n
s la
po or</w>
ong u
com es</w>
be fore</w>
H is</w>
A D
s wor
p i
en ce,</w>
c ar
IS AB
ISAB ELL
ISABELL A:</w>
'T is</w>
man y</w>
t ongu
p ow
Wh o</w>
R AN
ee p</w>
c or
c ha
in ,</w>
U LI
ULI ET:</w>
ONT ES:</w>
LE ONTES:</w>
L et</w>
J ULIET:</w>
An d,</w>
p ur
n ,</w>
me an
ir ,</w>
di s
da y</w>
ch ,</w>
gh t,</w>
fa ther</w>
con t
thou gh</w>
kn ow
ing .</w>
f ear
d ly</w>
L AD
LAD Y</w>
c our
V OL
P ro
EN C
ENC E:</w>
B u
t ing</w>
s le
k es</w>
hear t</w>
g oo
er .</w>
chi l
Th en</w>
B R
y 's</w>
r y,</w>
lea ve</w>
iti zen
b ear</w>
Th e
S er
C itizen
pa s
li tt
in e</w>
h or
es ;</w>
again st</w>
ou l</w>
n ow,</w>
bo th</w>
Wha t,</w>
S IC
SIC INIUS:</w>
N ay,</w>
w o
th an
m ent</w>
i d
ti ll</w>
th ose</w>
sp i
re e</w>
loo k</w>
ee p
an ce</w>
S ha
u l
th at
t !</w>
ci ous</w>
you ng
i ll</w>
g rie
an t</w>
N o,</w>
me ;</w>
h el
d on
ca ll</w>
c ou
B e</w>
ur der
le .</w>
hon our
f ir
ca use</w>
LUC IO:</w>
v a
to -
su b
st and</w>
re e
k e,</w>
ho p
bl ood</w>
T I
Ri char
No t</w>
IV :</w>
EDW ARD</w>
se t</w>
ll ow</w>
le s</w>
k in
d ing</w>
L O:</w>
ARD :</w>
th us</w>
st r
m s</w>
l ou
gh ter
Ha ve</w>
wi th
w r
i ve</w>
Y or
t ch
s o,</w>
re p
o '</w>
n ow
fri end
a wa
Th y</w>
N ow</w>
H :</w>
C a
v e.</w>
un to</w>
n es
k .</w>
com e,</w>
bro ther
Z AB
ZAB ET
ZABET H:</w>
I ZABETH:</w>
EL IZABETH:</w>
st :</w>
l y,</w>
b ur
tru e</w>
t s,</w>
s oul
h us
I AN
GR E
w ha
pe op
litt le</w>
H en
ro y
na me</w>
d ou
bro ther</w>
S </w>
C L
, --</w>
ha pp
com p
S a
P ER
M ER
qu i
lif e</w>
W IC
WIC K:</w>
W AR
WAR WICK:</w>
N ow,</w>
I ,</w>
G ood</w>
or e</w>
i m
d en
d ed</w>
U T
II :</w>
Citizen :</w>
king ,</w>
h ,</w>
dea th</w>
d rea
be tter</w>
N ur
p ut</w>
c es</w>
M :</w>
HA M:</w>
tw o</w>
c ould</w>
U L
UL ET:</w>
P ULET:</w>
N o</w>
CA PULET:</w>
n at
lo ve
fri en
for tun
f f
w in
man ,</w>
hea v
We ll,</w>
Sha ll</w>
w at
u r</w>
ta l
in t</w>
ho ld</w>
e very</w>
we ll,</w>
we l
t r
s un
s on,</w>
k e
gh t.</w>
f t</w>
d ra
W hi
UT US:</w>
UC KING
UCKING HAM:</w>
BR UTUS:</w>
B UCKINGHAM:</w>
wor l
se s</w>
no thing</w>
ll a
k eep</w>
dea th
com m
b id</w>
Wi ll</w>
T RAN
TRAN IO:</w>
RO K
ROK E:</w>
OL ING
OLING B
OLINGB ROKE:</w>
F rom</w>
B OLINGBROKE:</w>
wh ose</w>
self ,</w>
s ure</w>
s ol
ou gh</w>
mi ght</w>
c lo
br ing</w>
b or
Nur se:</w>
j e
h u
c en
c ed</w>
wi ll
st ru
st ra
sp o
pra y</w>
an sw
T a
g </w>
The y</w>
Th ere
P e
MAR G
MARG AR
MARGAR ET:</w>
ES S</w>
w ea
sti ll</w>
st res
sa y,</w>
l ong</w>
gra ce</w>
gent le</w>
f ind</w>
es :</w>
ar d</w>
an d,</w>
MI L
K ing</w>
A TH
v ir
s ur
s s</w>
ig n
ey es</w>
dou b
ar </w>
Wh y</w>
O ur</w>
L i
Cl ar
young </w>
thou s
th en,</w>
t en</w>
st ri
re me
ma ster
i l</w>
hon our</w>
dau ghter
d one</w>
d on</w>
com for
Y et</w>
S he</w>
H OR
G EL
GEL O:</w>
B o
AN GELO:</w>
t y,</w>
s '</w>
p u
me :</w>
ll 'd</w>
fa l
c ra
EL :</w>
D u
C U
AR INA:</w>
thou ght</w>
p s</w>
ne w</w>
li ve</w>
g et</w>
ee ch</w>
c la
Mar ci
K ATH
KATH ARINA:</w>
me ?</w>
h and</w>
d own</w>
ce :</w>
ca me</w>
Th ere</w>
N or</w>
H ere</w>
E ng
po s
la w
la d
i ther</w>
el se</w>
ch an
ban ish
a t,</w>
T hi
O n
ri ed</w>
lo ve,</w>
in to</w>
hear d</w>
h ol
gra cious</w>
d own
b est</w>
ar m
a pp
L US:</w>
ES CA
ESCA LUS:</w>
D o</w>
un c
t re
p it
l ong
fu ll</w>
f ear</w>
d ear</w>
d ar
con f
b ri
th is
s ome
par t</w>
on e.</w>
of f</w>
m en,</w>
lor d.</w>
fe c
dea th,</w>
d -
c </w>
b us
at t
S ir,</w>
Ha th</w>
AN D:</w>
wh om</w>
ti on,</w>
ti m
there fore</w>
t rea
n 'd</w>
hea ven</w>
b la
at e,</w>
J u
G o</w>
Du ke</w>
D UCH
well .</w>
vo i
ver e
u s.</w>
sta y</w>
sin ce</w>
roy al</w>
ni ght</w>
my self</w>
ma kes</w>
f irst</w>
RO S
Pro vo
, --
w on
th en
si on</w>
o a
j es
h our
for th</w>
fa ther,</w>
de li
da m
d ow
d d
b al
U p
wor ld</w>
tra it
te mp
st .</w>
ran t</w>
on ce</w>
k 'd</w>
g en
g ed</w>
do st</w>
b i
V I:</w>
MIL LO:</w>
I A:</w>
CA MILLO:</w>
thous and</w>
thin e</w>
pa ti
or t</w>
or ,</w>
oo k</w>
f ur
da m,</w>
b ear
a u
R I
Edwar d</w>
E ven</w>
DUCH ESS</w>
t e,</w>
s ing</w>
own :</w>
la u
i s,</w>
far </w>
d s.</w>
c re
T EN
TEN S
L e
HOR TENS
C ome</w>
wh ere
tur n</w>
ther .</w>
so vere
on .</w>
of fi
n ing</w>
mi s
la y</w>
in s</w>
RI AR
RIAR </w>
HORTENS IO:</w>
F RIAR</w>
Bu t,</w>
A ll</w>
wi lt</w>
vir tu
tion .</w>
thou ,</w>
sp e
s ent</w>
que en
it s</w>
i '</w>
hea ven
ha s</w>
ght er</w>
f la
de vi
a m
Up on</w>
TI ST
TIST A:</w>
T y
P TISTA:</w>
N or
BA PTISTA:</w>
A re</w>
wr ong
rou gh</w>
re ven
lif e,</w>
i se</w>
des er
bus in
b it
at or
Y C
YC US:</w>
W ould</w>
T OL
TOL YCUS:</w>
OM INIUS:</w>
I n
EDW ARD:</w>
C OMINIUS:</w>
AU TOLYCUS:</w>
x t</w>
v ing
t -
st ran
st ar
sir .</w>
lor d</w>
hou se</w>
es s,</w>
e ven</w>
ab out</w>
Thi r
E Y:</w>
CL AR
CLAR ENCE:</w>
. '</w>
wom an
sha lt</w>
sh ow</w>
pr om
ir e</w>
hea d</w>
father 's</w>
fa ir
c l
Thir d</w>
Provo st:</w>
P a
M urder
M ore</w>
G ent
C on
' d.</w>
y e
wor d</w>
vi lla
van t:</w>
the e.</w>
self .</w>
pr ou
ni ght
l y.</w>
hus ban
hop e</w>
happ y</w>
ha st
g re
g e.</w>
en g
ch e
VOL IO:</w>
N OR
EN VOLIO:</w>
Cl own:</w>
B ENVOLIO:</w>
un der
tongu e</w>
thou t</w>
reme mb
m eet</w>
lie ve</w>
l and</w>
k s,</w>
ho ly</w>
hi gh
f ee
ea ch</w>
e ld</w>
UM IO:</w>
S h
ROS PER
ROSPER O:</w>
R e
P ROSPERO:</w>
GR UMIO:</w>
w an
than k</w>
spi ri
sa id</w>
pro ve</w>
plea se</w>
n one</w>
n ee
her e,</w>
her ,</w>
for e,</w>
f ,</w>
es t,</w>
di e</w>
ce ;</w>
Murder er:</w>
MER CU
MERCU TIO:</w>
y ing</w>
th at,</w>
s it</w>
pow er</w>
or i
k is
he 's</w>
h </w>
ga in</w>
fa i
ce i
a ge</w>
LUC ENTIO:</w>
C om
w eep
u mb
t ly</w>
ser vi
s oul</w>
s in</w>
res t</w>
p ,</w>
mi stres
l ed</w>
i an
e d,</w>
bea u
W ere</w>
Ta ke</w>
Ser vant:</w>
P OM
POM P
L AND:</w>
H ere
y i
ter ,</w>
ta in</w>
ta in
t ch</w>
sub je
sir ;</w>
sh ow
se ;</w>
on ly</w>
o .</w>
n s</w>
ll .</w>
le :</w>
l ing</w>
ju sti
d e,</w>
d ang
b er
T e
P AU
PAU L
PAUL INA:</w>
L u
G ive</w>
D o
A u
wor ds</w>
war d</w>
that 's</w>
ra ther</w>
me an</w>
i mp
gain st</w>
es sen
dau ghter</w>
bes eech</w>
ar e
POMP EY:</w>
M u
M IO:</w>
GRE MIO:</w>
A t</w>
sol di
ri ght</w>
p t</w>
ig n</w>
i ght</w>
him self</w>
ha l
gen er
g ro
g r
cou sin
X EN
XEN ES:</w>
VOL UM
VOLUM N
VOLUMN IA:</w>
P OL
POL I
POLI XENES:</w>
G o,</w>
, '</w>
' t.</w>
ving man:</w>
the m,</w>
so .</w>
rou ght</w>
o 's</w>
n .</w>
mo ther
mer c
li es</w>
him ;</w>
h un
di sp
cen ti
W as</w>
T ha
Ser vingman:</w>
ST ING
STING S:</w>
HA STINGS:</w>
G ON
B ER
v es,</w>
to ge
o '
no t.</w>
ma jes
le t's</w>
kin d
k ind</w>
k en</w>
f ol
essen g
er s,</w>
chil dr
af ter</w>
Wh ere
Ty bal
T :</w>
R ENCE:</w>
L AU
LAU RENCE:</w>
Gent le
D i
wif e</w>
thi s,</w>
th ing
t ow
t ou
que en</w>
par don</w>
p lu
o ver
n ur
mor row
mi ll
m ea
hel p</w>
g row
fo llow
fe llow
ck 'd</w>
b ar
a way</w>
B Y:</w>
wh y</w>
w re
thou ght
t end
t ear
st u
sa w</w>
r un
ne 'er</w>
mo ther</w>
lor ds,</w>
ll s</w>
l .</w>
k e.</w>
him :</w>
far e
fa ll</w>
f oul</w>
da y,</w>
d om</w>
ba ck</w>
b e,</w>
a ll,</w>
a ,</w>
UM BER
UMBER LAND:</w>
TH UMBERLAND:</w>
S t
Richar d</w>
P ar
NOR THUMBERLAND:</w>
M on
LI F
LIF F
H ar
C LIFF
B ol
you ?</w>
sa ve</w>
s end</w>
pur po
m .</w>
le ft</w>
in .</w>
frien ds</w>
for d,</w>
du ke</w>
answ er</w>
Th ough</w>
S u
I D
An ge
z e</w>
s es
jo y</w>
i d,</w>
ent .</w>
ci an
c er
bloo dy</w>
N E:</w>
Ange lo
AN NE:</w>
you ;</w>
wor thy</w>
tim es</w>
sw ear</w>
su re
spea k
sle ep
si l
new s</w>
l s</w>
l ear
k i
ig ni
i gh
fa ul
f it</w>
c tor
b le
Warwi ck</w>
R INC
P RINC
ON E:</w>
IAN :</w>
Hen ry</w>
H er</w>
F ran
F a
C lif
A la
w oun
to ld</w>
th y
th ree</w>
ta l</w>
st o
s 'd</w>
pri son
pra y
lor d
ing bro
in k</w>
igni or</w>
dea th.</w>
de ed</w>
d an
com man
c rea
S ignior</w>
P ra
OR D:</w>
O n</w>
L a
G re
C ori
Bol ingbro
An </w>
A h,</w>
wi thout</w>
wa y,</w>
th ings</w>
t y.</w>
st or
re qu
qu ar
pres ent</w>
o ther
min d</w>
in t
go t</w>
g la
f ea
es ?</w>
er y</w>
d in
c ol
be t
b on
an other</w>
a ble</w>
Wh ose</w>
Te ll</w>
R om
P o
F are
you :</w>
ta gu
sw ee
sp ee
shi p</w>
mor e,</w>
ll y</w>
la st</w>
king .</w>
k ill</w>
in stru
in i
hi gh</w>
h ence</w>
g on
fa ce</w>
er e,</w>
ent rea
bo dy</w>
be lieve</w>
at ch
a gain</w>
Warwi ck,</w>
S ome</w>
S en
Mon tagu
we 'll</w>
up ,</w>
st ate</w>
s oun
s ca
me !</w>
m urder
m bl
li sh</w>
li ght</w>
li e</w>
lan d,</w>
it y,</w>
in ce</w>
han ds</w>
fortun e</w>
for m
fal se</w>
e cu
do es</w>
di sc
dee d,</w>
again .</w>
T o
Sh ould</w>
Sen ator
Rome o</w>
J o
F or
D id</w>
wi ll,</w>
v ent
ster ,</w>
pea ce</w>
p e</w>
ou gh
o b
no ,</w>
ne ed</w>
m ou
k ed</w>
fl ow
esseng er:</w>
en t,</w>
de f
d ge</w>
d en</w>
d ear
coun tr
ch oo
bro ther,</w>
b oo
Z EL:</w>
S he
On e</w>
ORI ZEL:</w>
M essenger:</w>
Lor d:</w>
Li ke</w>
L ORIZEL:</w>
ID IUS:</w>
Go d,</w>
F LORIZEL:</w>
F IDIUS:</w>
Edwar d's</w>
AU FIDIUS:</w>
whi le</w>
w ri
tw ent
thin ks</w>
t y
o be
men t,</w>
mean s</w>
lau di
heav y</w>
han d,</w>
h our</w>
g at
ex ecu
e f
di sh
comfor t</w>
ch o
ce !</w>
b ir
Th ese</w>
T ON
L E:</w>
I ON
C laudi
C ap
AR I
wi sh</w>
un der</w>
tal k</w>
t ears</w>
sor row</w>
sor row
sh or
oul dst</w>
li ves</w>
li fe
l :</w>
k ne
is su
h e,</w>
gu il
g g
fo llow</w>
dea d</w>
con su
com e.</w>
ck .</w>
ch .</w>
ca u
b rought</w>
Senator :</w>
S E
Ha st
Ha d</w>
Gentle man:</w>
! '</w>
with in</w>
wha t's</w>
w oo
u t
ti t
them .</w>
th rough</w>
str eng
sh 'd</w>
see m</w>
se en</w>
res ol
qu a
pro p
p her
om ,</w>
mar ri
man .</w>
ma ster</w>
lou ces
li ght
l ar
it ;</w>
ing :</w>
her .</w>
f an
ear th</w>
e d.</w>
der ,</w>
d s:</w>
c ri
brea k</w>
bo s
b </w>
She pher
ST IAN:</w>
SE BA
SEBA STIAN:</w>
RICH ARD:</w>
Ma y</w>
MAR C
Go d's</w>
G louces
A gainst</w>
y ears</w>
wif e,</w>
t es
si g
s wa
rea d
pla y</w>
ment s</w>
ma tter
lor d;</w>
it :</w>
ing ha
i m</w>
friend s,</w>
f row
es t
es s.</w>
er 'd</w>
d one,</w>
d g
crow n</w>
comp an
bloo d,</w>
b un
Wha t's</w>
Shepher d:</w>
O W
MARC IUS:</w>
Ca mill
y ear
y 'd</w>
wh y,</w>
ti me,</w>
this ?</w>
sun </w>
subje c
su c
sa me</w>
re s</w>
peop le</w>
ou ght</w>
on d</w>
o ver</w>
nat u
n ed</w>
in ted</w>
go ds</w>
g ran
for d</w>
e 'er</w>
dra w</w>
comm on</w>
ck s</w>
ck ingha
chan ge</w>
bl es
all .</w>
V ol
T ill</w>
M o
ION D
IOND ELL
IONDELL O:</w>
Bu ckingha
B IONDELLO:</w>
x </w>
w ear
there 's</w>
th ;</w>
tend er</w>
sa ys</w>
rea d</w>
que en,</w>
prin ce</w>
p ity</w>
o !</w>
mu si
mo ther,</w>
mi ght
k en
it ?</w>
han g
ha te</w>
g ol
es !</w>
er ous</w>
ch 'd</w>
ce ?</w>
bl e,</w>
b and</w>
Yor k</w>
Th en,</w>
S i
Nor fol
' t,</w>
wi xt</w>
war rant</w>
ve :</w>
twent y</w>
tion s</w>
th r
su ff
spea k.</w>
rea dy</w>
pi e
of t</w>
ma y
loo ks</w>
li ve,</w>
kn ow,</w>
i sh</w>
hus band</w>
