</w>	202651
e	94611
t	67009
o	65798
a	55507
h	51310
s	49696
r	48889
n	48529
i	45537
l	33339
d	31358
e</w>	29077
u	26584
th	22739
m	22243
y	20448
,	19846
,</w>	19603
w	17585
t</w>	17300
s</w>	16256
f	15770
c	15623
d</w>	14957
g	13356
ou	12730
I	11832
er	11771
b	11321
p	10808
y</w>	10679
in	10606
:	10316
:</w>	10275
an	10197
or	8458
o</w>	8284
.	7885
A	7819
.</w>	7811
v	7793
en	7568
k	7088
ar	7081
T	7015
on	6435
ll	6357
'	6187
ha	6055
E	6041
O	5481
the</w>	5473
N	5079
is</w>	5010
R	4869
f</w>	4817
es	4677
you	4649
S	4523
I</w>	4448
ll</w>	4335
to</w>	4165
and</w>	4101
ow	3964
ea	3943
L	3876
C	3820
e,</w>	3801
r</w>	3703
ing	3660
;	3628
wi	3617
om	3614
;</w>	3599
er</w>	3550
W	3530
st	3360
U	3313
of</w>	3311
th</w>	3230
H	3068
hi	2982
M	2840
or</w>	2808
ve</w>	2787
B	2761
a</w>	2749
no	2747
ch	2729
my</w>	2713
in</w>	2642
se	2489
?	2462
he</w>	2456
?</w>	2436
G	2399
li	2359
at</w>	2341
ing</w>	2307
the	2263
re	2245
st</w>	2216
!	2172
you</w>	2132
!</w>	2108
An	2105
D	2089
ear	2078
ti	2056
en</w>	2041
oo	2041
d,</w>	1982
gh	1981
ri	1977
ma	1901
-	1897
s,</w>	1869
ed</w>	1867
ra	1830
not</w>	1818
that</w>	1817
m</w>	1816
And</w>	1801
F	1797
's</w>	1795
on</w>	1764
Y	1718
t,</w>	1706
me</w>	1684
le	1660
y,</w>	1654
P	1641
ld</w>	1629
ow</w>	1625
ou</w>	1620
his</w>	1619
as</w>	1617
la	1606
ir	1593
ut</w>	1591
K	1584
hat</w>	1577
with</w>	1573
es</w>	1549
ur	1532
sh	1526
be</w>	1500
an</w>	1499
your</w>	1497
be	1495
O:</w>	1494
k</w>	1485
it</w>	1469
ro	1469
di	1457
ere</w>	1440
ch</w>	1432
ke</w>	1424
for</w>	1396
un	1374
EN	1373
se</w>	1321
IN	1313
e.</w>	1313
for	1302
fa	1286
have</w>	1281
l</w>	1262
ce</w>	1258
ee	1251
S:</w>	1230
Th	1205
it	1200
sa	1185
com	1184
our</w>	1166
at	1135
AR	1124
this</w>	1124
'd</w>	1123
n</w>	1106
le</w>	1095
thou</w>	1095
lo	1077
ther	1072
wh	1056
ta	1028
IO:</w>	1025
sha	1024
thy</w>	1021
sp	1012
ould</w>	997
ly</w>	990
rea	978
su	951
ent	930
Wh	885
US:</w>	879
will</w>	872
but</w>	868
me	848
The</w>	845
om</w>	845
con	839
ca	834
are</w>	828
ru	819
si	813
To</w>	800
we	799
wor	799
V	798
ne	780
ood</w>	776
ir</w>	771
de	768
wa	764
ther</w>	753
da	750
mor	738
by</w>	737
mi	731
ol	730
UC	725
ce	725
p</w>	722
all</w>	717
s.</w>	717
shall</w>	717
d.</w>	716
ver	716
him</w>	710
ear</w>	709
so</w>	704
ING	703
man	693
AN	677
mu	677
oun	677
ck	670
ds</w>	670
lor	668
ER	665
OR	663
we</w>	662
mo	656
res	656
ter	649
et</w>	636
ght</w>	635
sel	635
ET	628
j	628
rom</w>	622
do</w>	619
o,</w>	617
That</w>	616
her</w>	611
po	611
q	609
qu	609
him	605
kn	604
vi	603
'</w>	600
te	596
no</w>	588
pa	588
our	581
'll</w>	580
bl	576
A:</w>	570
est</w>	568
what</w>	567
ga	566
KING	556
y.</w>	554
one</w>	553
to	551
hich</w>	548
do	542
ess</w>	541
But</w>	538
ci	538
el	538
ong	534
t.</w>	534
bo	533
from</w>	532
her	531
x	529
ent</w>	528
fi	523
us</w>	522
thou	521
sir	512
IC	509
al	509
war	508
good</w>	506
es,</w>	505
dea	502
if</w>	499
OL	497
was</w>	492
up	488
hea	483
fu	482
EL	481
hear	476
fe	474
lea	474
IUS:</w>	466
ARD	465
KING</w>	465
ome</w>	464
would</w>	457
tt	456
For</w>	453
min	449
ous</w>	447
--	446
their</w>	446
par	442
ST	441
My</w>	440
row	439
ce,</w>	438
of	436
ver</w>	434
Wi	432
am</w>	431
they</w>	431
thee</w>	430
ve	429
I'll</w>	427
ran	425
pro	424
ho	421
E:</w>	419
gi	416
de</w>	412
thin	412
ge</w>	411
ON	407
ght	407
more</w>	402
me,</w>	401
is	400
ble</w>	399
d;</w>	398
per	398
tru	396
us	394
der	392
ck</w>	391
What</w>	383
gra	381
ll,</w>	381
d:</w>	380
en,</w>	380
sw	380
As</w>	379
bro	379
she</w>	377
II	374
were</w>	373
hath</w>	370
A</w>	367
ba	366
so	364
he	361
gh</w>	360
on,</w>	360
Ha	356
z	356
like</w>	354
make</w>	353
ge	350
pe	350
't	349
th,</w>	349
king	348
you,</w>	348
ARD</w>	346
ts</w>	342
RO	341
than</w>	341
go	340
TIO:</w>	339
du	338
ni	335
w</w>	335
na	333
pr	333
may</w>	332
ET:</w>	330
AU	329
must</w>	329
let</w>	326
come</w>	324
E</w>	322
Y</w>	322
J	320
You</w>	319
end</w>	318
ow,</w>	318
them</w>	318
gain	317
irst</w>	312
ere	309
s;</w>	309
should</w>	308
fri	307
now</w>	305
s:</w>	305
upon</w>	305
mb	304
spea	303
K:</w>	298
fore</w>	298
out</w>	298
which</w>	298
If</w>	296
id</w>	295
CA	294
ICH	293
pp	293
RICH	292
lan	292
mp	292
own</w>	292
ven</w>	291
can	290
des	290
how</w>	290
DUK	289
UK	289
ence</w>	289
han	289
then</w>	289
DUKE</w>	288
had</w>	288
mar	286
sta	286
ese</w>	283
hon	282
know</w>	281
ENTIO:</w>	277
ac	277
gu	277
Go	276
ER:</w>	275
O</w>	274
ry</w>	274
ey	273
ose</w>	273
pla	272
Y:</w>	269
ful</w>	268
O,</w>	267
ig	267
some</w>	267
He</w>	266
INC	266
lif	266
man</w>	266
t's</w>	266
very</w>	266
ome	265
when</w>	265
ure</w>	264
end	260
loo	260
son	260
ted</w>	260
tion</w>	260
ty</w>	260
cu	259
did</w>	259
sir,</w>	257
ther,</w>	257
here</w>	255
say</w>	255
ex	253
gent	253
AB	252
dy</w>	252
own	252
self	252
ster	251
Which</w>	250
sti	249
such</w>	249
al</w>	248
k,</w>	248
op	247
self</w>	247
take</w>	247
ves</w>	247
again	246
il	246
sh</w>	245
ve,</w>	244
--</w>	243
t:</w>	243
most</w>	242
there	242
m,</w>	241
In</w>	240
love</w>	240
LO	239
these</w>	239
I:</w>	238
give</w>	238
king</w>	238
yet</w>	237
RICHARD</w>	236
With</w>	236
char	236
pri	236
EST	235
First</w>	235
coun	235
sc	235
UCH	233
pra	233
see</w>	233
Of</w>	232
well</w>	232
Q	231
GLOUCESTER:</w>	229
LOUCESTER:</w>	229
UCEST	229
UCESTER:</w>	229
chi	229
thing</w>	229
vo	229
This</w>	227
EEN	226
eet</w>	226
tion	226
Lor	225
ven	225
Ma	224
e;</w>	224
sed</w>	224
y;</w>	224
LI	223
bu	221
sin	221
y:</w>	221
ome,</w>	220
ser	219
QUEEN	216
UEEN	216
VINC	216
VINCENTIO:</w>	216
can</w>	216
oul	216
Mar	215
OF	214
OF</w>	214
ds,</w>	214
d?</w>	212
thee,</w>	210
st,</w>	209
How</w>	208
brea	207
HEN	206
Thou</w>	206
lord,</w>	206
whi	206
Se	205
d's</w>	205
e:</w>	205
go</w>	205
any</w>	204
te</w>	204
tu	203
af	202
lt</w>	202
se,</w>	202
time</w>	202
ind</w>	201
'tis</w>	200
HENRY</w>	200
RY</w>	200
So</w>	200
der</w>	200
grea	200
tell</w>	200
ES	199
fo	199
ing,</w>	199
ter</w>	199
Z	198
up</w>	198
ad	197
ban	197
rou	197
Is</w>	196
mine</w>	196
well	196
ORI	195
ved</w>	194
ce.</w>	193
ng	193
er:</w>	192
made</w>	192
there</w>	192
QUEEN</w>	191
s!</w>	191
ES:</w>	190
ap	190
d!</w>	190
jo	190
never</w>	190
pre	190
YOR	188
YORK:</w>	188
Your</w>	188
ab	188
too</w>	187
pres	186
We</w>	185
rie	185
INIUS:</w>	184
Wha	184
art</w>	184
old</w>	184
mer	183
ong</w>	182
see	182
ks</w>	181
lie	181
use</w>	181
PET	180
ju	180
less</w>	180
It</w>	179
lu	179
son</w>	179
'st</w>	178
dee	178
'T	177
ED	177
EDW	177
e?</w>	177
far	177
tra	177
GR	176
Ri	176
Why,</w>	176
hear</w>	176
t;</w>	176
way</w>	176
TH	175
much</w>	175
es.</w>	174
s?</w>	174
sen	174
tter</w>	174
MI	173
UM	173
LE	172
LUC	172
MEN	172
me.</w>	172
plea	172
my	171
think</w>	171
IS	170
ELL	169
cannot</w>	169
er,</w>	169
men	169
noble</w>	169
ate</w>	168
him,</w>	168
cond</w>	167
doth</w>	167
Be	166
all	166
ers</w>	166
iti	166
que	166
tter	166
Ed	165
ME	165
mon	165
tw	165
hou	164
Edwar	163
Or</w>	163
ROME	163
ROMEO:</w>	163
MENEN	162
MENENIUS:</w>	162
No	162
We	162
been</w>	162
it.</w>	162
van	162
By</w>	161
pea	161
stan	161
ay,</w>	160
where</w>	160
ct</w>	159
wom	159
PETRUCHIO:</w>	158
RUCHIO:</w>	158
UCHIO:</w>	158
bea	158
other</w>	158
ound</w>	158
tur	158
God</w>	157
OM	157
ang	157
as	157
it,</w>	157
le,</w>	157
tor	157
'd,</w>	156
fl	156
nor</w>	156
prin	156
speak</w>	156
When</w>	155
tri	155
e!</w>	154
him.</w>	154
one,</w>	154
re</w>	154
sor	154
Ay,</w>	153
Come,</w>	153
new	153
row</w>	153
sea	153
shi	153
HA	152
MAR	152
ONT	152
Cl	151
CORIOLAN	150
ORIOL	150
ORIOLAN	150
Where</w>	150
ness</w>	150
y!</w>	150
CORIOLANUS:</w>	149
Second</w>	149
being</w>	149
father	149
man:</w>	148
ving</w>	148
you.</w>	148
ck,</w>	147
dr	147
thi	147
crow	146
fair</w>	146
har	146
l,</w>	146
th.</w>	146
BA	145
Rome	145
ever</w>	145
foo	145
too	145
zen	145
ears</w>	144
y?</w>	144
ces	143
dau	143
ity</w>	143
red</w>	143
bloo	142
co	142
e's</w>	142
ish	142
men</w>	142
INA:</w>	141
gar	141
gentle	141
ings</w>	141
not,</w>	141
ys</w>	141
'er</w>	140
Lord</w>	140
D:</w>	139
IV	139
bes	139
llow	139
ment	139
tun	139
III:</w>	138
great</w>	138
off	138
us,</w>	138
't</w>	137
Than</w>	137
se.</w>	137
wif	137
your	137
br	136
hast</w>	136
ster</w>	136
them	136
War	135
bra	135
ence	135
ge,</w>	135
t?</w>	135
cur	134
Warwi	133
beg	133
ep	133
se:</w>	133
sweet</w>	133
ten	133
who</w>	133
dst</w>	132
ene	132
Un	131
AD	130
His</w>	130
before</w>	130
comes</w>	130
ongu	130
poor</w>	130
sla	130
'Tis</w>	129
ISAB	129
ISABELL	129
ISABELLA:</w>	129
car	129
ence,</w>	129
pi	129
swor	129
many</w>	128
RAN	127
Who</w>	127
pow	127
tongu	127
cha	126
cor	126
eep</w>	126
And,</w>	125
JULIET:</w>	125
LEONTES:</w>	125
Let</w>	125
ONTES:</w>	125
ULI	125
ULIET:</w>	125
in,</w>	125
ch,</w>	124
day</w>	124
dis	124
ir,</w>	124
mean	124
n,</w>	124
pur	124
cont	123
father</w>	123
ght,</w>	123
LAD	122
LADY</w>	122
dly</w>	122
fear	122
ing.</w>	122
know	122
though</w>	122
Bu	121
ENC	121
ENCE:</w>	121
Pro	121
VOL	121
cour	121
BR	120
Then</w>	120
chil	120
er.</w>	120
goo	120
heart</w>	120
kes</w>	120
sle	120
ting</w>	120
Citizen	119
Ser	119
The	119
bear</w>	119
itizen	119
leave</w>	119
ry,</w>	119
y's</w>	119
against</w>	118
es;</w>	118
hor	118
ine</w>	118
litt	118
pas	118
Nay,</w>	117
SIC	117
SICINIUS:</w>	117
What,</w>	117
both</w>	117
now,</w>	117
oul</w>	117
id	116
ment</w>	116
than	116
wo	116
Sha	115
ance</w>	115
eep	115
look</w>	115
ree</w>	115
spi	115
those</w>	115
till</w>	115
cious</w>	114
t!</w>	114
that	114
ul	114
No,</w>	113
ant</w>	113
grie	113
ill</w>	113
young	113
Be</w>	112
X	112
call</w>	112
cou	112
don	112
hel	112
me;</w>	112
LUCIO:</w>	111
cause</w>	111
fir	111
honour	111
le.</w>	111
urder	111
EDWARD</w>	110
IV:</w>	110
Not</w>	110
Richar	110
TI	110
blood</w>	110
hop	110
ke,</w>	110
ree	110
stand</w>	110
sub	110
to-	110
va	110
ARD:</w>	109
LO:</w>	109
ding</w>	109
kin	109
les</w>	109
llow</w>	109
set</w>	109
Have</w>	108
ghter	108
lou	108
ms</w>	108
str	108
thus</w>	108
Yor	107
ive</w>	107
with	107
wr	107
Ca	106
H:</w>	106
Now</w>	106
Thy</w>	106
awa	106
friend	106
now	106
o'</w>	106
rep	106
so,</w>	106
tch	106
ELIZABETH:</w>	105
IZABETH:</w>	105
ZAB	105
ZABET	105
ZABETH:</w>	105
brother	105
come,</w>	105
k.</w>	105
nes	105
unto</w>	105
ve.</w>	105
bur	104
ly,</w>	104
st:</w>	104
GRE	103
IAN	103
hus	103
soul	103
true</w>	103
ts,</w>	103
Hen	102
little</w>	102
peop	102
wha	102
,--</w>	101
CL	101
S</w>	101
brother</w>	101
dou	101
name</w>	101
roy	101
MER	100
PER	100
Sa	100
comp	100
happ	100
Good</w>	99
I,</w>	99
Now,</w>	99
WAR	99
WARWICK:</w>	99
WIC	99
WICK:</w>	99
life</w>	99
qui	99
Citizen:</w>	98
II:</w>	98
UT	98
ded</w>	98
den	98
im	98
ore</w>	98
Nur	97
better</w>	97
death</w>	97
drea	97
h,</w>	97
king,</w>	97
HAM:</w>	96
M:</w>	96
ces</w>	96
put</w>	96
CAPULET:</w>	95
No</w>	95
PULET:</w>	95
UL	95
ULET:</w>	95
could</w>	95
two</w>	95
ff	94
fortun	94
frien	94
love	94
nat	94
Shall</w>	93
Well,</w>	93
heav	93
man,</w>	93
win	93
every</w>	92
hold</w>	92
int</w>	92
tal	92
ur</w>	92
wat	92
BRUTUS:</w>	91
BUCKINGHAM:</w>	91
UCKING	91
UCKINGHAM:</w>	91
UTUS:</w>	91
Whi	91
dra	91
ft</w>	91
ght.</w>	91
ke	91
son,</w>	91
sun	91
tr	91
wel	91
well,</w>	91
BOLINGBROKE:</w>	90
From</w>	90
OLING	90
OLINGB	90
OLINGBROKE:</w>	90
ROK	90
ROKE:</w>	90
TRAN	90
TRANIO:</w>	90
Will</w>	90
bid</w>	90
comm	90
death	90
keep</w>	90
lla	90
nothing</w>	90
ses</w>	90
worl	90
Nurse:</w>	89
bor	89
bring</w>	89
clo	89
might</w>	89
ough</w>	89
self,</w>	89
sol	89
sure</w>	89
whose</w>	89
ced</w>	88
cen	88
hu	88
je	88
Ta	87
answ	87
pray</w>	87
spo	87
stra	87
stru	87
will	87
ESS</w>	86
MARG	86
MARGAR	86
MARGARET:</w>	86
Pe	86
There	86
They</w>	86
g</w>	86
ATH	85
King</w>	85
MIL	85
and,</w>	85
ard</w>	85
es:</w>	85
find</w>	85
gentle</w>	85
grace</w>	85
long</w>	85
say,</w>	85
still</w>	85
stres	85
wea	85
Clar	84
Li	84
Our</w>	84
Why</w>	84
ar</w>	84
doub	84
eyes</w>	84
ign	84
ss</w>	84
sur	84
vir	84
ANGELO:</w>	83
Bo	83
GEL	83
GELO:</w>	83
HOR	83
She</w>	83
Yet</w>	83
comfor	83
daughter	83
don</w>	83
done</w>	83
honour</w>	83
il</w>	83
master	83
reme	83
stri	83
ten</w>	83
then,</w>	83
thous	83
young</w>	83
ARINA:</w>	82
CU	82
Du	82
EL:</w>	82
cra	82
fal	82
ll'd</w>	82
me:</w>	82
pu	82
s'</w>	82
ty,</w>	82
KATH	81
KATHARINA:</w>	81
Marci	81
cla	81
eech</w>	81
get</w>	81
live</w>	81
new</w>	81
ps</w>	81
thought</w>	81
Eng	80
Here</w>	80
Nor</w>	80
There</w>	80
came</w>	80
ce:</w>	80
down</w>	80
hand</w>	80
me?</w>	80
On	79
Thi	79
at,</w>	79
banish	79
chan	79
else</w>	79
ither</w>	79
lad	79
law	79
pos	79
Do</w>	78
ESCA	78
ESCALUS:</w>	78
LUS:</w>	78
app	78
arm	78
best</w>	78
down	78
gracious</w>	78
heard</w>	78
hol	78
into</w>	78
love,</w>	78
ried</w>	78
bri	77
conf	77
dar	77
dear</w>	77
fear</w>	77
full</w>	77
long	77
pit	77
tre	77
unc	77
AND:</w>	76
Hath</w>	76
Sir,</w>	76
att	76
bus	76
c</w>	76
d-	76
death,</w>	76
fec	76
lord.</w>	76
men,</w>	76
off</w>	76
one.</w>	76
part</w>	76
some	76
this	76
DUCH	75
Duke</w>	75
Go</w>	75
Ju	75
ate,</w>	75
bla	75
heaven</w>	75
n'd</w>	75
therefore</w>	75
tim	75
tion,</w>	75
trea	75
whom</w>	75
,--	74
Provo	74
ROS	74
first</w>	74
makes</w>	74
myself</w>	74
night</w>	74
royal</w>	74
since</w>	74
stay</w>	74
us.</w>	74
vere	74
voi	74
well.</w>	74
Up	73
bal	73
dam	73
dd	73
deli	73
dow	73
father,</w>	73
forth</w>	73
hour	73
jes	73
oa	73
sion</w>	73
then	73
won	73
CAMILLO:</w>	72
IA:</w>	72
MILLO:</w>	72
VI:</w>	72
bi	72
dost</w>	72
ged</w>	72
gen	72
k'd</w>	72
once</w>	72
rant</w>	72
st.</w>	72
temp	72
trait	72
world</w>	72
DUCHESS</w>	71
Edward</w>	71
Even</w>	71
RI	71
au	71
bear	71
dam,</w>	71
fur	71
ook</w>	71
or,</w>	71
ort</w>	71
pati	71
thine</w>	71
thousand</w>	71
Come</w>	70
HORTENS	70
Le	70
TEN	70
TENS	70
cre	70
ds.</w>	70
far</w>	70
is,</w>	70
lau	70
own:</w>	70
sing</w>	70
te,</w>	70
All</w>	69
But,</w>	69
FRIAR</w>	69
HORTENSIO:</w>	69
RIAR	69
RIAR</w>	69
ins</w>	69
lay</w>	69
mis	69
ning</w>	69
offi	69
on.</w>	69
sovere	69
ther.</w>	69
turn</w>	69
where	69
Are</w>	68
BAPTISTA:</w>	68
Nor	68
PTISTA:</w>	68
TIST	68
TISTA:</w>	68
Ty	68
Upon</w>	68
am	68
devi	68
fla	68
ghter</w>	68
has</w>	68
heaven	68
i'</w>	68
its</w>	68
queen	68
sent</w>	68
spe	68
thou,</w>	68
tion.</w>	68
virtu	68
wilt</w>	68
AUTOLYCUS:</w>	67
COMINIUS:</w>	67
EDWARD:</w>	67
In	67
OMINIUS:</w>	67
TOL	67
TOLYCUS:</w>	67
Would</w>	67
YC	67
YCUS:</w>	67
ator	67
bit	67
busin	67
deser	67
ise</w>	67
life,</w>	67
reven	67
rough</w>	67
wrong	67
.'</w>	66
CLAR	66
CLARENCE:</w>	66
EY:</w>	66
Thir	66
about</w>	66
ess,</w>	66
even</w>	66
house</w>	66
lord</w>	66
sir.</w>	66
star	66
stran	66
t-	66
ving	66
xt</w>	66
'd.</w>	65
Con	65
Gent	65
More</w>	65
Murder	65
Pa	65
Provost:</w>	65
Third</w>	65
cl	65
fair	65
father's</w>	65
head</w>	65
ire</w>	65
prom	65
shalt</w>	65
show</w>	65
woman	65
BENVOLIO:</w>	64
Clown:</w>	64
ENVOLIO:</w>	64
NOR	64
VOLIO:</w>	64
che	64
eng	64
ge.</w>	64
gre	64
happy</w>	64
hast	64
hope</w>	64
husban	64
ly.</w>	64
night	64
prou	64
self.</w>	64
thee.</w>	64
vant:</w>	64
villa	64
word</w>	64
ye	64
GRUMIO:</w>	63
PROSPERO:</w>	63
ROSPER	63
ROSPERO:</w>	63
Re	63
Sh	63
UMIO:</w>	63
each</w>	63
eld</w>	63
fee	63
high	63
holy</w>	63
ks,</w>	63
land</w>	63
lieve</w>	63
meet</w>	63
rememb	63
thout</w>	63
tongue</w>	63
under	63
MERCU	62
MERCUTIO:</w>	62
Murderer:</w>	62
ce;</w>	62
die</w>	62
est,</w>	62
f,</w>	62
fore,</w>	62
her,</w>	62
here,</w>	62
nee	62
none</w>	62
please</w>	62
prove</w>	62
said</w>	62
spiri	62
thank</w>	62
wan	62
Com	61
LUCENTIO:</w>	61
age</w>	61
cei	61
fai	61
gain</w>	61
h</w>	61
he's</w>	61
kis	61
ori	61
power</w>	61
sit</w>	61
that,</w>	61
ying</w>	61
Here	60
LAND:</w>	60
POM	60
POMP	60
Servant:</w>	60
Take</w>	60
Were</w>	60
beau	60
ed,</w>	60
ian	60
led</w>	60
mistres	60
p,</w>	60
rest</w>	60
servi	60
sin</w>	60
soul</w>	60
tly</w>	60
umb	60
weep	60
Au	59
Do	59
Give</w>	59
Lu	59
PAU	59
PAUL	59
PAULINA:</w>	59
Te	59
ber	59
dang	59
de,</w>	59
justi	59
le:</w>	59
ling</w>	59
ll.</w>	59
ns</w>	59
o.</w>	59
only</w>	59
se;</w>	59
show	59
sir;</w>	59
subje	59
tain	59
tain</w>	59
tch</w>	59
ter,</w>	59
yi	59
At</w>	58
GREMIO:</w>	58
MIO:</w>	58
Mu	58
POMPEY:</w>	58
are	58
beseech</w>	58
daughter</w>	58
essen	58
gainst</w>	58
imp	58
mean</w>	58
rather</w>	58
that's</w>	58
ward</w>	58
words</w>	58
't.</w>	57
,'</w>	57
Go,</w>	57
POL	57
POLI	57
POLIXENES:</w>	57
VOLUM	57
VOLUMN	57
VOLUMNIA:</w>	57
XEN	57
XENES:</w>	57
cousin	57
gener	57
gr	57
gro	57
hal	57
himself</w>	57
ight</w>	57
ign</w>	57
pt</w>	57
right</w>	57
soldi	57
BER	56
GON	56
HASTINGS:</w>	56
STING	56
STINGS:</w>	56
Servingman:</w>	56
Tha	56
Was</w>	56
centi	56
disp	56
him;</w>	56
hun	56
lies</w>	56
merc	56
mother	56
n.</w>	56
o's</w>	56
rought</w>	56
so.</w>	56
them,</w>	56
vingman:</w>	56
Di	55
Gentle	55
LAU	55
LAURENCE:</w>	55
RENCE:</w>	55
T:</w>	55
Tybal	55
Where	55
after</w>	55
childr	55
ers,</w>	55
esseng	55
fol	55
ken</w>	55
kind	55
kind</w>	55
let's</w>	55
majes	55
not.</w>	55
o'	55
toge	55
ves,</w>	55
BY:</w>	54
away</w>	54
bar	54
ck'd</w>	54
fellow	54
follow	54
grow	54
help</w>	54
mea	54
mill	54
morrow	54
nur	54
over	54
pardon</w>	54
plu	54
queen</w>	54
thing	54
this,</w>	54
tou	54
tow	54
wife</w>	54
Bol	53
CLIFF	53
Har	53
LIF	53
LIFF	53
Mon	53
NORTHUMBERLAND:</w>	53
Par	53
Richard</w>	53
St	53
THUMBERLAND:</w>	53
UMBER	53
UMBERLAND:</w>	53
a,</w>	53
all,</w>	53
back</w>	53
be,</w>	53
day,</w>	53
dom</w>	53
fall</w>	53
fare	53
foul</w>	53
him:</w>	53
ke.</w>	53
l.</w>	53
lls</w>	53
lords,</w>	53
mother</w>	53
ne'er</w>	53
run	53
saw</w>	53
stu	53
tear	53
tend	53
thought	53
why</w>	53
wre	53
Ange	52
ID	52
Su	52
Though</w>	52
answer</w>	52
duke</w>	52
ford,</w>	52
friends</w>	52
in.</w>	52
left</w>	52
m.</w>	52
purpo	52
save</w>	52
send</w>	52
you?</w>	52
ANNE:</w>	51
Angelo	51
NE:</w>	51
bloody</w>	51
cer	51
cian	51
ent.</w>	51
id,</w>	51
joy</w>	51
ses	51
ze</w>	51
Ala	50
Clif	50
Fa	50
Fran	50
Henry</w>	50
Her</w>	50
IAN:</w>	50
ONE:</w>	50
PRINC	50
RINC	50
Warwick</w>	50
ble	50
ctor	50
faul	50
fit</w>	50
igh	50
igni	50
ki	50
lear	50
ls</w>	50
news</w>	50
sil	50
sleep	50
speak	50
sure	50
swear</w>	50
times</w>	50
worthy</w>	50
you;</w>	50
Ah,</w>	49
An</w>	49
Bolingbro	49
Cori	49
Gre	49
La	49
ORD:</w>	49
On</w>	49
Pra	49
Signior</w>	49
comman	49
crea	49
dan	49
death.</w>	49
deed</w>	49
ignior</w>	49
ingbro	49
ink</w>	49
lord	49
pray	49
prison	49
s'd</w>	49
sto	49
tal</w>	49
three</w>	49
thy	49
told</w>	49
woun	49
Fare	48
Po	48
Rom	48
Tell</w>	48
Whose</w>	48
able</w>	48
another</w>	48
bet	48
bon	48
col	48
din	48
ery</w>	48
es?</w>	48
fea	48
gla	48
got</w>	48
int	48
mind</w>	48
other	48
present</w>	48
quar	48
requ	48
stor	48
things</w>	48
ty.</w>	48
way,</w>	48
without</w>	48
Montagu	47
Sen	47
Some</w>	47
Warwick,</w>	47
again</w>	47
atch	47
believe</w>	47
body</w>	47
entrea	47
ere,</w>	47
face</w>	47
gon	47
hence</w>	47
high</w>	47
ini	47
instru	47
kill</w>	47
king.</w>	47
last</w>	47
lly</w>	47
more,</w>	47
ship</w>	47
spee	47
swee	47
tagu	47
you:</w>	47
Did</w>	46
For	46
Jo	46
Romeo</w>	46
Senator	46
Should</w>	46
To	46
again.</w>	46
deed,</w>	46
disc	46
does</w>	46
ecu	46
false</w>	46
form	46
fortune</w>	46
hands</w>	46
ince</w>	46
ity,</w>	46
land,</w>	46
lie</w>	46
light</w>	46
lish</w>	46
mbl	46
me!</w>	46
murder	46
sca	46
soun	46
state</w>	46
up,</w>	46
we'll</w>	46
AUFIDIUS:</w>	45
Edward's</w>	45
FIDIUS:</w>	45
FLORIZEL:</w>	45
God,</w>	45
IDIUS:</w>	45
LORIZEL:</w>	45
Like</w>	45
Lord:</w>	45
Messenger:</w>	45
ORIZEL:</w>	45
One</w>	45
She	45
ZEL:</w>	45
boo	45
brother,</w>	45
choo	45
countr	45
dear	45
def	45
den</w>	45
dge</w>	45
ent,</w>	45
essenger:</w>	45
flow	45
ked</w>	45
mou	45
need</w>	45
no,</w>	45
ob	45
ough	45
pe</w>	45
peace</w>	45
ster,</w>	45
vent	45
will,</w>	45
ARI	44
Cap	44
Claudi	44
ION	44
LE:</w>	44
TON	44
These</w>	44
bir	44
ce!</w>	44
cho	44
comfort</w>	44
dish	44
ef	44
execu	44
gat	44
hand,</w>	44
heavy</w>	44
hour</w>	44
laudi	44
means</w>	44
ment,</w>	44
obe	44
thinks</w>	44
twent	44
ty	44
while</w>	44
wri	44
!'</w>	43
Gentleman:</w>	43
Had</w>	43
Hast	43
SE	43
Senator:</w>	43
brought</w>	43
cau	43
ch.</w>	43
ck.</w>	43
come.</w>	43
consu	43
dead</w>	43
follow</w>	43
gg	43
guil	43
he,</w>	43
issu	43
kne	43
l:</w>	43
life	43
lives</w>	43
ouldst</w>	43
shor	43
sorrow	43
sorrow</w>	43
talk</w>	43
tears</w>	43
under</w>	43
wish</w>	43
Against</w>	42
Glouces	42
God's</w>	42
MARC	42
May</w>	42
RICHARD:</w>	42
SEBA	42
SEBASTIAN:</w>	42
STIAN:</w>	42
Shepher	42
b</w>	42
bos	42
break</w>	42
cri	42
der,</w>	42
ds:</w>	42
earth</w>	42
ed.</w>	42
fan	42
her.</w>	42
ing:</w>	42
it;</w>	42
lar	42
light	42
louces	42
man.</w>	42
marri	42
master</w>	42
om,</w>	42
pher	42
prop	42
qua	42
resol	42
seem</w>	42
seen</w>	42
sh'd</w>	42
streng	42
them.</w>	42
through</w>	42
tit	42
ut	42
what's</w>	42
within</w>	42
woo	42
Camill	41
MARCIUS:</w>	41
OW	41
Shepherd:</w>	41
What's</w>	41
blood,</w>	41
bun	41
compan	41
crown</w>	41
dg	41
done,</w>	41
er'd</w>	41
ess.</w>	41
est	41
friends,</w>	41
frow	41
im</w>	41
ingha	41
it:</w>	41
lord;</w>	41
matter	41
ments</w>	41
play</w>	41
read	41
sig	41
swa	41
tes	41
wife,</w>	41
years</w>	41
BIONDELLO:</w>	40
Buckingha	40
IOND	40
IONDELL	40
IONDELLO:</w>	40
Mo	40
Till</w>	40
Vol	40
all.</w>	40
bles	40
change</w>	40
ckingha	40
cks</w>	40
common</w>	40
draw</w>	40
e'er</w>	40
ford</w>	40
gods</w>	40
gran	40
inted</w>	40
natu	40
ned</w>	40
ond</w>	40
ought</w>	40
over</w>	40
people</w>	40
res</w>	40
same</w>	40
subjec	40
suc	40
sun</w>	40
this?</w>	40
time,</w>	40
why,</w>	40
y'd</w>	40
year	40
't,</w>	39
Norfol	39
Si	39
Then,</w>	39
York</w>	39
band</w>	39
ble,</w>	39
ce?</w>	39
ch'd</w>	39
erous</w>	39
es!</w>	39
gol	39
hang	39
hate</w>	39
it?</w>	39
ken	39
might	39
mother,</w>	39
musi	39
o!</w>	39
pity</w>	39
prince</w>	39
queen,</w>	39
read</w>	39
says</w>	39
tender</w>	39
th;</w>	39
there's</w>	39
wear	39
x</w>	39
husband</w>	38
ish</w>	38
know,</w>	38
live,</w>	38
looks</w>	38
may	38
oft</w>	38
pie	38
ready</w>	38
speak.</w>	38
suff	38
thr	38
tions</w>	38
twenty</w>	38
ve:</w>	38
warrant</w>	38
wixt</w>	38
3	27
&	3
$	1
