#version: dm-bpe-sennrich-2016
e </w>
s </w>
i n
e n
t i
o n
a n
o r
e r
d </w>
t h
, </w>
. </w>
a l
a r
t </w>
y </w>
- -
in g
t o
ti on
e s
e d</w>
) </w>
r o
k en
e l
al </w>
o f
e c
of </w>
th e</w>
a tion
a t
an d</w>
i z
c h
a </w>
to ken
ing </w>
l e
i s
r a
i c
e s</w>
u r
s t
en t
c o
in </w>
-- --
f or
er </w>
a b
m p
a g
i g
r e
g u
i t
i s</w>
on </w>
: </w>
to </w>
a s
★ ★
ti c
gu ag
an guag
u l
l o
m a
m </w>
l anguag
u s
e x
a c
2 0
o d
en c
- </w>
s ,</w>
e t
ation </w>
u n
) .</w>
w or
a s</w>
i th
token iz
p ro
s u
i l
o c
er s</w>
a p
e d
ing u
for m
s .</w>
l y</w>
or </w>
m od
l e</w>
an </w>
u t
r es
n o
s e
l ingu
ch </w>
w ith
v e</w>
d e
r an
---- ----
for </w>
s p
m ent
s i
mod el
c on
P E
B PE
a t</w>
t ex
co mp
th e
oc ab
n </w>
s o
ra in
q u
c or
P T
20 2
} </w>
u d
p o
ar e</w>
r i
h o
f ic
with </w>
o ken
m e
languag e</w>
l i
i ec
enc e
wor d
p er
T oken
P iec
ran s
k </w>
b y</w>
p l
lo g
T h
u g
t rain
t e
mp le
d i
d at
c e</w>
L L
w </w>
v ocab
u t</w>
is tic
en </w>
v er
tic al</w>
t rans
l ar
en t</w>
al l
Token iz
ul ti
m or
f i
es ,</w>
y ,</w>
v el
ig ra
y th
u s</w>
ti ve</w>
en er
U n
P yth
h </w>
ec t
a m
tion </w>
n e
m ulti
ar i
G PT
BPE </w>
) ,</w>
tokeniz ers</w>
token </w>
th at</w>
su b
p h
g ener
fic i
e ,</w>
b as
a d
Un igra
w h
ur al</w>
t s</w>
ent ence
o g
lingu istic
co d
ar y</w>
u st
es s
e f
c an</w>
ar </w>
0 0
p en
in t
in e</w>
h an
g e</w>
cor p
b e</w>
at e</w>
ab le</w>
S entence
LL M
y te
v ari
tex t</w>
r ec
p </w>
n g
m m
le ar
ig h
g or
e m
e .</w>
d is
Th e</w>
Sentence Piec
lear n
in form
i r
al ly</w>
+ </w>
★★ </w>
u c
sp e
ro m</w>
ro b
lo w
l is
c l
ation s</w>
Unigra m</w>
; </w>
5 0
( e
% </w>
ur e</w>
trans l
token s</w>
t en
s y
or d
g .</w>
f rom</w>
ch ar
’ s</w>
– </w>
wor d</w>
v i
s ec
p res
p ar
multi lingu
l </w>
d o
ac t
20 1
(e .
y .</w>
ug g
tokeniz er
s )</w>
r el
n at
mple ment
ing ,</w>
es .</w>
e )</w>
a ch
2 </w>
ur ce</w>
tex t
o l
no is
ig n
ic al</w>
i t</w>
e -
a ti
] </w>
W ord
T </w>
GPT -
E R
B ER
A </w>
(e. g.</w>
★ </w>
word s</w>
w e
vocab </w>
un d
t y
st ud
st r
so </w>
o th
le x
it y</w>
inform ation</w>
dat a</w>
Pyth on</w>
H ugg
202 3
★★ ★</w>
vel </w>
u b
tion {
ro p
re pres
pro c
model </w>
ma ch
mach ine</w>
et c
es s</w>
b ut</w>
O pen
F ac
A I
4 </w>
the or
su ch</w>
sec tion{
o p
nat ural</w>
m an
it s</w>
i mplement
gor ith
fici enc
f in
ec i
e v
comp ut
ation ,</w>
at ed</w>
Word Piec
C +
A p
1 00
wh i
w as</w>
v e
ti k
s iz
s c
repres ent
pro b
po s
ng lis
multilingu al</w>
mor e</w>
li k
enc e</w>
d es
cl ud
bas ed</w>
Open AI
E nglis
B yte
0 </w>
-------- --------
whi ch</w>
us t</w>
us e</w>
train ing</w>
train ed</w>
stud y</w>
rop y</w>
res o
p re
o us</w>
o s
o </w>
linguistic s</w>
le vel</w>
lar ge</w>
i b
fi el
e a
co de
ati s
ap pro
al gorith
a y
Tokeniz ers</w>
SentencePiec e</w>
Pyth on
A PT
201 8
1 </w>
( R
ul ary</w>
th ro
s ho
s ).</w>
proc ess
o ut
o log
model s</w>
in clud
i mp
ed .</w>
e ar
c at
ab le
a mple
LLM </w>
I n</w>
I n
2023 )</w>
- reso
ul d</w>
ug h</w>
trans form
t ri
t er
sp eci
ra c
pl ic
o ut</w>
o un
m il
ing .</w>
in to</w>
i d
f er
ent ropy</w>
en ti
ef ficienc
e as
d uc
d oc
char act
c ri
b e
al so</w>
ab il
a tive</w>
a il
W e</w>
C o
A d
2 )</w>
- level</w>
( </w>
" </w>
{ \
wor k
v s</w>
tokeniz er</w>
thro ugh</w>
the ma
ten tion</w>
st y
st atis
se qu
s :</w>
p e
o og
m er
m all
languag es</w>
ho w</w>
h ar
h a
gu lar
f </w>
es :</w>
en cod
corp or
cor e</w>
ation al</w>
ation .</w>
an al
al iz
X </w>
V ocab
Tokeniz er</w>
LL a
Hugg ing</w>
G oog
Fac e</w>
E x
C od
BER T</w>
Ap ach
202 4
2 .
-reso urce</w>
' s</w>
★★ ★★★</w>
★★ ★★</w>
y t
y s
vel op
ur c
u p
si on</w>
s mall
s ign
rob le
ro s
oth er</w>
no t</w>
ne ural</w>
m e</w>
lik e</w>
k no
it t
ir </w>
i p
han n
gular iz
gener al</w>
g ra
f a
es e</w>
ed ,</w>
e- 2.
e y</w>
e /
de velop
d s</w>
d ing</w>
co mm
c er
ap tive</w>
algorith m
al ,</w>
P roble
M et
M </w>
LLa M
I t</w>
Englis h</w>
C+ +</w>
Apach e-2.
APT </w>
A l
3 2
vocab ulary</w>
v al
us ed</w>
ur es</w>
ty p
transl ation</w>
tion ,</w>
tik token</w>
sy st
sty le</w>
statis tical</w>
sho uld</w>
s /
re qu
ra p
prob abil
pl ay
p or
p er</w>
o v
o k
n i
n et
n am
ma thema
m b
log y</w>
log </w>
lar g
k )</w>
i k
i es</w>
ha ve</w>
h igh
fici al</w>
f ul
er e</w>
ect ed</w>
e t</w>
d u
d ro
d er
b yte
b yt
b r
an ce</w>
an c
a ,</w>
T rain
S hann
Python /
Goog le
F or</w>
BPE /
2 5
-- </w>
{\ dis
{\dis play
{\display style</w>
y :</w>
ust n
ur r
tion al</w>
tic s</w>
t a
so urc
s h
s el
ros s</w>
ph on
p ho
on e</w>
me an
ma y</w>
m in
j ec
it H
itH ub
imp ro
i ti
i m
han d
h as</w>
fiel d</w>
fic </w>
fi x
er s,</w>
er -
en s
en g
el in
ea ch</w>
e gor
e :</w>
e ).</w>
dis c
d et
corp us</w>
cod e</w>
cat egor
at tention</w>
as k
as et
ap plic
\ section{
T able</w>
O O
N o
G itHub
G B
C or
Apache-2. 0</w>
Ad aptive</w>
5 </w>
3 0
202 2)</w>
- based</w>
( 2018
y i
yi el
w n</w>
v ect
us es</w>
urr ent</w>
tokeniz ation</w>
ti m
ti ficial</w>
th er
th an</w>
te g
teg r
t ra
t able</w>
sub section{
str uc
si mil
si der
se g
s }</w>
s ent
s ),</w>
re gulariz
per i
p lex
p ap
out co
oun d</w>
or s</w>
on ly</w>
on g
o b
no </w>
ment s</w>
ment al</w>
me th
me mor
low -resource</w>
languag e,</w>
l in
l a
iz e</w>
in p
ic s</w>
i v
i f</w>
etc .
e ’s</w>
e tical</w>
e p
dro po
des cri
de fin
corpor a</w>
c re
c as
b et
ar tificial</w>
ac ross</w>
\ subsection{
WordPiec e</w>
V </w>
S pe
OpenAI </w>
Co mp
C har
BER T
= </w>
5 .
( ~
… </w>
ys is</w>
x </w>
wor k</w>
w rap
w r
ver sion</w>
ver ag
us ing</w>
ur ve
un ic
u p</w>
ty po
ti l
theor y</w>
th is</w>
t ure</w>
t ask
st at
speci fic</w>
spe ed</w>
spe ec
si ve</w>
si on
sc i
s es</w>
rob ustn
rel ated</w>
rec og
process ing</w>
pro pos
per form
p ri
p ected</w>
os t</w>
nois y</w>
nois e</w>
ne w</w>
multi -
meth od
man y</w>
ma in</w>
m ent</w>
li br
learn ing</w>
languag es,</w>
languag e.</w>
l ic
it ect
int ro
ing s</w>
impro v
implement ed</w>
ic ally</w>
ib il
g lo
es t</w>
ence ,</w>
el y</w>
el l
ed i
e p</w>
des ign
con sider
comput ational</w>
comp res
charact er</w>
ch itect
ch an
ar chitect
an y</w>
all </w>
al .</w>
a mp
a f
W ik
Unigra m
Train ing</w>
Spe ed</w>
S t
R e
P U
LLaM A</w>
Hugg ing
H F
D at
4 .
20 20
1 9
(R ust
yiel d</w>
y nam
y glo
yglo t</w>
y -
word s.</w>
with out</w>
we igh
we en</w>
w ere</w>
vi a</w>
vari able
v is
ut .</w>
up dat
u </w>
tri b
til l</w>
tik token
tic </w>
ti v
theor etical</w>
the y</w>
the ir</w>
th ese</w>
t in
t er</w>
sy n
sub word</w>
su mm
st rac
speec h</w>
sp ac
small er</w>
sequ ence</w>
seg ment
s till</w>
s ing
sing le</w>
s e</w>
s ample
sample :</w>
represent ations</w>
rel eas
recog ni
rec urrent</w>
ran do
qu an
qu al
pro duc
pre d
pho logy</w>
per plex
par am
param et
or ig
orig in
ong </w>
ol yglot</w>
of t
o m
n el
memor y</w>
me as
m on
m ec
mec han
m ar
linguistic s,</w>
li m
languag es
l y,</w>
l igh
kno wn</w>
it y.</w>
ip edi
int er
int ell
intell ig
includ ing</w>
includ e</w>
il l
ig n</w>
i d</w>
i </w>
f requ
f ra
f ound</w>
f e
ex ample
etc .</w>
er .</w>
ec t</w>
e m</w>
descri b
dat aset
corp us
con cer
concer n
comp ar
chan nel
categor ies</w>
c it
byt e</w>
bet ween</w>
bas e</w>
b i
b ar</w>
at es</w>
appro ach
an t</w>
an d
ac k</w>
ab out</w>
a ch</w>
_ {
\ log</w>
[ </w>
Wik ipedi
Vocab </w>
Shann on</w>
Proble m</w>
P olyglot</w>
No is
M or
M od
M I
L anguag
GPT- 4</w>
E </w>
Cod e</w>
C+ +
BPE/ WordPiec
50 k</w>
202 6
-- -</w>
(2018 )</w>
( 2023)</w>
( 2022)</w>
" ,</w>
ynam ic
y ).</w>
wrap per
wr itt
writt en</w>
word s,</w>
with in</w>
w id
w el
w e</w>
verag e</w>
vect ors</w>
val u
ur es,</w>
un c
ud e</w>
u le
transl ation,</w>
transform ers</w>
transform er</w>
ti t
th </w>
text ,</w>
tex ts</w>
t s,</w>
t able
t ,</w>
syst em</w>
syst em
sy ch
su per
su p
struc ture</w>
so urce</w>
so me</w>
siz e</w>
simil ar</w>
si b
se t</w>
se e</w>
s ed</w>
recogni tion,</w>
rans form
rando m</w>
rac tical</w>
r ule
r are</w>
qu i
prob le
pred ic
pre vi
pl in
perform ance</w>
pen di
p sych
p ractical</w>
p as
ov er</w>
oth </w>
or t
o und
o u</w>
o ok
o d</w>
ng </w>
net work</w>
mon o
mechan is
mean ing
mathema tical</w>
ma th
m  
m i
lo w</w>
lis h
linguistic </w>
lingu al</w>
lim it
libr ary</w>
learn ing.</w>
learn ing,</w>
learn ed</w>
larg er</w>
languag es.</w>
k ey</w>
is t
intro duc
ingu istic
in iti
implement ation</w>
ill ust
il e</w>
id enti
ic ,</w>
i plin
h u
ful l</w>
fra me
for m</w>
fi ed</w>
f oc
f ig
f fer
f ac
example ,</w>
ex peri
es t
ence .</w>
enc es</w>
en se
en d
ed ed</w>
e/ Unigram</w>
e ments</w>
e b
e X</w>
du ce</w>
doc s</w>
disc iplin
di ffer
de ep</w>
d res
corpus .</w>
compar is
comm unic
comm on</w>
cod ing</w>
cas e</w>
c ap
byte -level</w>
b ri
ation s.</w>
ation s,</w>
approach es</w>
appro ach</w>
anal ysis</w>
am oun
aliz ed</w>
algorithm ,</w>
ad dres
ad ap
ac k
ab strac
[ 1
Unigram )</w>
Tokeniz er
T ransform
T eX</w>
T F
T 5</w>
SentencePiec e)</w>
R ust</w>
R ust
R es
Proble m 
P </w>
OO V</w>
N L
Met a,</w>
LLM s</w>
L inguistic
L M
K ud
HF </w>
Fac e’s</w>
F ig
Englis h
E n
D ev
Comp ut
Cod e
Char act
C on
Byte BPE</w>
Byte -level</w>
BPE )</w>
A n
7 </w>
50 ,
32 k)</w>
30 k</w>
100 </w>
. ,</w>
-------- ----
(R ust</w>
( h
( Meta,</w>
( 2024
( 1
” </w>
– 2026
} }
y T5</w>
y )</w>
work .</w>
wel l</w>
w o</w>
w n
ver y</w>
vari an
vari able</w>
v ec
vec </w>
us er</w>
urve y
ur ing</w>
un its</w>
ul ar</w>
ul ar
ug h
u tion</w>
u tion
u ment
typo s,</w>
typ ically</w>
tokenizer s.</w>
tion s.</w>
tin u
ti ve
ti al</w>
th us</w>
tegr ation</w>
t ur
t un
t u
t r
t ly</w>
sup por
summ ar
sub words</w>
str ings</w>
st er</w>
spe ed,</w>
sourc es</w>
sh ap
se en</w>
sci ence,</w>
sc al
s t</w>
s low
s ligh
s ;</w>
robustn ess</w>
requ ir
regulariz ation
quan ti
produc ibil
proc ess</w>
proble m</w>
probabil iti
pro vi
previ ous</w>
pos sib
pl ac
ph i
phi lo
ph em
paramet er
p ub
p t
p eci
p a
p (
outco me</w>
os e</w>
or m
on d</w>
on 's</w>
olog y</w>
olog y,</w>
oft en</w>
net work
n u
n ess
model s.</w>
mil li
mi x
mer g
meas ure</w>
ma k
ma in
ma id</w>
m s</w>
m ost</w>
m is
m et
m en
m ,</w>
lo ok
lo c
lik el
lic ense
li er</w>
languag e)</w>
la ude</w>
l ing</w>
l in</w>
l ess</w>
iv es</w>
it y,</w>
it er
is t</w>
introduc ed</w>
inform ation.</w>
in {
in v
in ed</w>
in cre
improv ing</w>
imp ort
i de
high -
hand le</w>
h ea
gra mm
gener aliz
g in{
ful </w>
fiel ds</w>
f ound
f ficienc
ex t</w>
ex plic
ev ol
etc. )</w>
ent ly</w>
end {
en code
en ,</w>
el ine</w>
efficienc y</w>
efficienc y,</w>
ef fici
e as</w>
doc ument
do main</w>
di vi
di tional</w>
di men
develop ment</w>
develop ed</w>
dat a
d ra
d ing
concern ed</w>
con trib
con text
comput er</w>
comp on
code ).</w>
co l
c ep
be ing</w>
be gin{
bas elin
b oth</w>
b l
b ib
b el
b al
bal anc
ation s:</w>
as s
ari es</w>
applic ations</w>
anal og
amp le</w>
amoun t</w>
all y,</w>
algorith m</w>
al low
ac t</w>
ab o
a verage</w>
a v
a TeX</w>
a .</w>
] ).</w>
\ end{
\ begin{
W eb
Vocab ulary</w>
U se
Th is</w>
Th ese</w>
Shann on's</w>
S ub
S </w>
NL P</w>
N e
MI T</w>
M ulti
M a
Linguistic s</w>
Languag e</w>
LLaM A
L aTeX</w>
L M</w>
I mplement
Hugging Face</w>
Google ,</w>
GPT- 2
GPT ‑
GPT </w>
G PU
Ex pected</w>
Dev lin</w>
D es
Charact er
C laude</w>
C h
BPE/WordPiec e/Unigram</w>
B yT5</w>
Ap pendi
8 00
6 </w>
50, 25
50 k)</w>
5 .</w>
2024 )</w>
2 vec</w>
100 k
0 ,
. )</w>
- trained</w>
- f
) ;</w>
(Rust )</w>
(2024 –2026
( the</w>
( n
( Unigram)</w>
( TF
( S
( OpenAI
( LLM
( 2020
" .</w>
− </w>
⁡ </w>
† L
~ 32
~ 30k</w>
{\ math
{\math c
{\mathc al</w>
{ X
{X }}
ynamic </w>
y ou</w>
y ing</w>
y bri
ybri d</w>
x im
word s)</w>
wh ile</w>
wh ere</w>
wh en</w>
weigh ts</w>
w ar
vis i
ver t
ver b
vel y</w>
vect or</w>
vari ous</w>
ut e</w>
ut ,</w>
us er-
us ep
usep ack
usepack ag
usepackag e
usepackage {
us cri
urve y</w>
und s</w>
und er</w>
und er
un seen</w>
un it
un igra
un i
u al</w>
tur n</w>
tri ev
transl ations</w>
transform er
train ing.</w>
tra st
tokenizer s,</w>
tokenizer .</w>
token s/
token s.</w>
token s)</w>
token -
tion .</w>
tiktoken ,</w>
tic s,</w>
tic ally</w>
ti me
ti g
ther e
the -f
the-f ly</w>
th ose</w>
th o
th ical</w>
th er</w>
th en</w>
ten s</w>
task s</w>
task s,</w>
table s</w>
t wo</w>
t tention</w>
t s.</w>
t ec
tec h
t e</w>
t ag
system s</w>
super s
supers eded</w>
summar iz
su m
st ate</w>
spe ed
spac e,</w>
sp oken
spoken </w>
sp l
so unds</w>
small </w>
sligh tly</w>
siz es</w>
simil ar
sign ed</w>
sign al</w>
si tional</w>
shap e</w>
sequ ences</w>
sent ence</w>
sent enc
sel f
self -
segment ation</w>
sec ond</w>
se man
se ed
scal e</w>
s urvey
s ign</w>
s et
s entence
sentence .</w>
s "</w>
rob ust</w>
res p
res ear
resear ch
research ers</w>
represent ation</w>
releas ed</w>
regulariz ation</w>
rec e
re triev
re po
repo .</w>
re plac
re fer
ran ge</w>
ra w</w>
ra ph
r is
r ics</w>
qual it
pub lish
provi d
propos ed</w>
propos e</w>
process ing,</w>
process es</w>
probabiliti es</w>
probabil ity</w>
pri m
prim ary</w>
possib le</w>
po sitional</w>
phon em
pho log
perplex ity</w>
peci ally</w>
pe ar</w>
par tic
par all
parall el
pap er</w>
p ur
p t</w>
p at
pat ter
outco m
orm aliz
origin al</w>
or y</w>
or F
op tim
on s</w>
olog y.</w>
og raph
of f
oc i
oci ated</w>
ob jec
o w
ni tive</w>
ne u
ne ed
n h
multilingu al
mor phology</w>
mor phem
mono lingu
model s,</w>
model ing</w>
model .</w>
min im
milli on</w>
method s</w>
merg ing</w>
mer maid</w>
meaning ful</w>
mean ing</w>
mar k</w>
mar k
man uscri
mak e</w>
ma ,</w>
m .</w>
look up</w>
lo s
lin e
line ar</w>
limit ations</w>
likel i
likeli ho
likeliho od</w>
lex ical</w>
languages ),</w>
l y.</w>
l eng
kno w</w>
k ,</w>
jec t</w>
iz ed</w>
itt ing</w>
it y:</w>
it .</w>
istic </w>
is h
inv es
inves tig
intellig ence.</w>
inp ut</w>
initi al</w>
in tegr
in for
import ance</w>
illust r
il i
ide as</w>
ic un
i tion</w>
i ed</w>
hu man
ho l
high -resource</w>
hea d</w>
hand l
h is</w>
h el
h ,</w>
gener ation</w>
gener al,</w>
g ro
g nitive</w>
g ives</w>
g et</w>
g ap
g a
g .,</w>
frequ ent</w>
form ul
form ation</w>
for e</w>
fix ed</w>
fin e-
fine- tun
fig ur
fficienc y</w>
fe at
fac e)</w>
fa ir
f y</w>
f unc
f ect</w>
f am
f all
fall b
fallb ack</w>
explic it</w>
experi ment
ex pres
ex pected</w>
etc ).</w>
ess :</w>
es pecially</w>
es ;</w>
es ).</w>
es ),</w>
er n</w>
enti al</w>
ent ri
ens orF
encod ing</w>
encod er-
en sive</w>
en ch
em o
em b
emb ed
effici ent</w>
ef ul
ed -
ed )</w>
ec tion</w>
ec a
eca use</w>
ear ly</w>
ear lier</w>
e very</w>
e mor
dropo ut</w>
dropo ut.</w>
do min
do main
dimen sion
di rec
det ail
describ ing</w>
describ ed</w>
defin ition</w>
defin ed</w>
de pen
d uring</w>
d ge</w>
contrib ution
con trast
con tinu
con text</w>
con s
con cep
comp lex
communic ation</w>
code ,</w>
co in</w>
co gnitive</w>
cit e</w>
charact ers</w>
ch at
ch ar</w>
cer ta
c ar
c an
can not</w>
byte -
be en</w>
b re
b ran
av ail
at ing</w>
ass ociated</w>
as e</w>
architect ures</w>
ar t</w>
ar ge</w>
applic ations.</w>
ap pear</w>
anc e.</w>
analog ous</w>
am ong</w>
am e</w>
all eng
al og
al low</w>
ail ure</w>
ad v
ac c
ab ov
ab ly</w>
a x
a k
\ usepackage{
[ 20
[ 0,
Word 2vec</w>
Wikipedi a</w>
Wikipedi a
Web T
W ith
V icun
V i
Use -
Transform ers</w>
Train ed</w>
Tokeniz ation</w>
Token </w>
Th ey</w>
Th e
T ra
T ensorF
T 5
Sub word</w>
St atis
SentencePiec e’s</w>
Rust -based</w>
Re gulariz
R ef
Python/ J
Python/J S</w>
Python/ C++</w>
P a
P )</w>
P (
OpenAI ’s</w>
O n
Nois e</w>
N N
Multi lingual</w>
Mor phology</w>
Mod el
M ost</w>
M emor
M any</w>
M T</w>
L arge</w>
Kud o</w>
K ey</w>
In tegration</w>
In formation</w>
Implement ation</w>
I mp
Google ’s</w>
GitHub ]</w>
GPT- 2</w>
GB )</w>
G ap
Fig ure</w>
Dat aset
Dat a</w>
Cor p
Comput ational</w>
Code G
C PU
C L
B ook
B i
B L
Appendi x
Al l</w>
A ttention</w>
A s</w>
A n</w>
A P
50 +</w>
5 2
3 </w>
3 .</w>
201 9
2 6
19 4
1 -
00 </w>
/ byte</w>
/ </w>
. .
---------------- --------
---------------- ----
------------ -</w>
- the-fly</w>
- specific</w>
- L
(OpenAI )</w>
(LLM s)</w>
( text
( see</w>
( or</w>
( multilingual</w>
( c
( as</w>
( Hugging</w>
( GB
( 50k)</w>
" s
≥ 50
≥50 </w>
‑ ing</w>
ự </w>
ữ </w>
ế ng</w>
ầ n</w>
ý </w>
ô n</w>
ê n
á ch</w>
à </w>
~32 k</w>
~ 1</w>
~ 100k
y z
y po
y m
ym ous</w>
y ear
year ,</w>
x }</w>
x )
wrapper s.</w>
wrap p
wrapp ers</w>
wr it
work s</w>
word s).</w>
word ,</w>
wn st
wnst re
wid ely</w>
wid e</w>
wh er
wher eas</w>
wh at</w>
weigh t</w>
we ver
we b
we ak
weak ness
w s</w>
w ho
w er</w>
w a
vocab ul
vocab .</w>
vocab ),</w>
visi on</w>
vis ed</w>
vert ed</w>
verb ati
verbati m
verbatim }</w>
ver se</w>
ver s
vers al</w>
vel ,</w>
ve ;</w>
varian ts</w>
variable ,</w>
variable 's</w>
vari et
variet y</w>
vari es</w>
vari ations</w>
valu es.</w>
val ent</w>
v à</w>
v or</w>
v er</w>
v ed</w>
ut )</w>
ustn ess:</w>
us u
usu ally</w>
us s</w>
us i
us e-
us ag
ur s</w>
ur ed</w>
ur </w>
updat es</w>
unit s,</w>
unigra m
uni versal</w>
under st
und re
undre ds</w>
und a
unda mental</w>
unc tu
un d</w>
un certa
uncerta int
uncertaint y</w>
ular y:</w>
ul ts,</w>
ul t</w>
ul l</w>
u mm
u il
typ es</w>
typ e</w>
train ing,</w>
train )</w>
tra in</w>
tokenizer s:</w>
tokenizer s
tokeniz ed</w>
tokeniz e
token s,</w>
token s).</w>
token )</w>
to l
tol er
to d
to -
tiv es,</w>
tit le</w>
tion }</w>
tion s</w>
tion ally,</w>
tin c
tim es</w>
tiktoken )</w>
ti ếng</w>
tho ugh
there fore</w>
thema tical</w>
the tic</w>
the m
th ics</w>
text {
text .</w>
text ).</w>
ter ms</w>
ter m</w>
ten tial</w>
te mp
table .</w>
ta ined</w>
t ự</w>
t }</w>
t ropy</w>
t re
tre at</w>
t le
t ing
t est</w>
t es</w>
t ail
syn ta
sy mb
symb ol
suppor ts</w>
super vised</w>
summ ary</w>
sub strings</w>
sub ject</w>
su m</w>
su c
suc c
stud y,</w>
stud ied</w>
str eng
streng th
statis tics</w>
stat ements</w>
st ep</w>
st a
sta tic</w>
spl itting</w>
speed ;</w>
speci fied</w>
speci alized</w>
spe ed.</w>
spac e</w>
sourc e,</w>
so ph
so me
some times</w>
so l
small est</w>
slow er</w>
slow er.</w>
siz es,</w>
siz e,</w>
sign s</w>
sign i
signi fic
sho w</w>
sh i
shi f
sel y</w>
se par
separ ate</w>
sci enti
scienti fic</w>
sc ri
sc rap
scrap ed</w>
s/ token)</w>
s ur
s k
s er
s ch
s ame</w>
s -
s ",</w>
rule s</w>
rule -based</w>
rop y.</w>
rob i
ro o
ro ad
ris k</w>
retriev al,</w>
resp on
res ol
requir ed</w>
represent s</w>
represent ed</w>
represent ative</w>
repres ent</w>
rel ate</w>
regularization )</w>
rec ent</w>
re use</w>
re turn</w>
re producibil
re por
re m
rem ov
remov ed</w>
re h
reh ensive</w>
re f
re ad
ran g
ra tive
ra p</w>
r y</w>
r st</w>
r on
ron ically</w>
r ic
r en</w>
r ect
qui valent</w>
qui re
qualit ati
qual ity</w>
qu es
ques tions.</w>
qu e</w>
qu al</w>
publish ed,</w>
pt )</w>
psych ology,</w>
psych o
producibil ity</w>
probabil istic</w>
pro gramm
pro duce</w>
pri ate</w>
pre -trained</w>
pos ed</w>
por a
pora :</w>
po tential</w>
plex ity:</w>
pl or
pl a
phonem es</w>
phon ology</w>
phon e
pholog ical</w>
philo soph
ph ys
ph ra
peri mental</w>
perform ance.</w>
per form</w>
patter n
pattern s</w>
pas s</w>
partic ular</w>
parameter s)</w>
paramet ers</w>
parallel </w>
par tial</w>
par t</w>
pap ers,</w>
pap er.</w>
pa ir</w>
pa ir
p( x)
p unctu
p rec
p r
p p
p li
p le</w>
p ip
p iec
p ac
out p
oth er
origin ally</w>
ord er</w>
or etical</w>
on ymous</w>
on to</w>
on s.</w>
on ly,</w>
on es</w>
olog ical</w>
ol low
ol ec
olec ular</w>
ograph y
oft "</w>
of ficial</w>
of -
ob ustness:</w>
o ver
o urce</w>
o per
o BERT
nu mer
numer ical</w>
nu mb
no w</w>
no vel</w>
no table</w>
nh i
ng ữ</w>
ng ôn</w>
neu robi
ne ar
n a
na me
multilingu al,</w>
multi- head</w>
multi ple</w>
monolingu al
model ling</w>
model -specific</w>
mod i
modi fied</w>
mm unic
mis sion
met a
ment ally</w>
mechanis m</w>
mechanis m,</w>
me .</w>
mathema tics</w>
mathema tics,</w>
manuscri pt</w>
ma tics</w>
ma tical</w>
ma int
maint a
m olecular</w>
m matical</w>
m igh
migh t</w>
m at
m ask
m an</w>
m a</w>
lo sely</w>
lis ts</w>
linguistic s.</w>
license .</w>
license ,</w>
lic ens
libr aries</w>
li ography
li b
lex ic
lex ibil
leng th</w>
learn s</w>
le {
le vel,</w>
le .</w>
larg est</w>
larg e,</w>
la ma
l y
l ong</w>
l iter
l ine</w>
l ess
l en
len ess</w>
l ected</w>
l ay
l ack</w>
k ),</w>
j or</w>
iv ed</w>
itt leness</w>
it y).</w>
ist ing</w>
is ation</w>
investig ates</w>
intro duce</w>
inter disciplin
interdisciplin ary</w>
intellig ence</w>
integr ated</w>
inp ut.</w>
inp ut
ing :</w>
ing /
ing ).</w>
infor ma
incre mentally</w>
in s</w>
in fer
in f
in divi
indivi du
in depen
indepen d
independ ent</w>
in corpor
incorpor ate</w>
in ,</w>
improv ed</w>
impro ve</w>
implement s</w>
implement ation
im ag
illustr ates</w>
illust rative
il y</w>
il ed</w>
ig S
igS c
igSc i
identi fi
ic </w>
i le
i al</w>
i )</w>
hu man</w>
ho urs</w>
har d
handl ing,</w>
h ybrid</w>
h undreds</w>
h ist
h ili
h en</w>
gro up
gra ph
gra mmatical</w>
generaliz e</w>
gener ation.</w>
gener ated</w>
gap s</w>
g ed</w>
g </w>
func tion</w>
frequ enc
frequenc y</w>
frame work</w>
found ational</w>
form s</w>
foc using</w>
foc us</w>
fix ed.</w>
fix ed-
fine-tun ing</w>
fin al</w>
figur e
fiel d
fic ation</w>
fic ation,</w>
fi rst</w>
feat ures</w>
fe wer</w>
fa vor</w>
fa ster</w>
fa ir</w>
f undamental</w>
f ter</w>
f ollow
f li
f act
expres sed</w>
experiment s.</w>
experi mental</w>
ex isting</w>
ex ist</w>
ex ical</w>
ex cer
excer pt)</w>
ex ample</w>
evol ution</w>
et nam
est ab
estab lish
est -
es s,</w>
es )</w>
er r
er plexity:</w>
er ing</w>
er ,</w>
entri es.</w>
ent s</w>
ent ropy.</w>
ens ures</w>
ener g
encode (text
encod er</w>
ench mark</w>
enc es.</w>
en ef
enef its</w>
en comp
encomp as
encompas ses</w>
emo j
em er
em ent</w>
elin es:</w>
efficienc y.</w>
ed uc
ec tion,</w>
ec od
ec .</w>
ear ch</w>
e quivalent</w>
e qual</w>
e mp
e k
e ith
e g
e ad
ead s</w>
du e</w>
dropo ut)</w>
dro p</w>
document }</w>
doc s.</w>
do es</w>
divi ding</w>
disciplin es,</w>
dis trib
dis tinc
dis a
disa ster</w>
direc tional</w>
ding s,</w>
differ ent</w>
di verse</w>
di rect
develop ing</w>
detail s</w>
det ection,</w>
design s</w>
design ,</w>
der ived</w>
de -
de- off
dataset s</w>
dataset .</w>
dat a,</w>
d ynamic</w>
d ings</w>
d ecod
d ,</w>
corpor a.</w>
cor rec
cor ding</w>
contribution s</w>
continu ous</w>
context u
consider ed</w>
concern s</w>
concep t</w>
con verted</w>
con tained</w>
con fer
comput ing,</w>
compres sion</w>
compres s</w>
compon ents</w>
compon ent</w>
comparis ons</w>
comparis on</w>
comp rehensive</w>
comp iled</w>
comp act</w>
code -
code- mix
cod ing/
co verag
co uld</w>
co mb
co in,</w>
clud e</w>
cl usi
cl as
char t</w>
char s/token)</w>
channel </w>
channel .</w>
ch es</w>
ch ed</w>
ch alleng
cat ch</w>
cas e:</w>
car d
cap ture</w>
c r
c on</w>
c losely</w>
c all
call ed</w>
bri dge</w>
bre v
bran ches</w>
bib liography
bi o
bel ow
baselin e).</w>
balanc ing</w>
b uil
b road
b jec
b it</w>
b ig
b ecause</w>
b ack
ax is</w>
avail able</w>
ation s}</w>
at temp
at or
as t</w>
as sive</w>
as signed</w>
as elin
architect ures,</w>
ar s</w>
ar eas</w>
ar ch</w>
ar ative</w>
ar ,</w>
appro xim
appro priate</w>
ap t
and ar
anc es</w>
anal yz
an tag
ample s</w>
alog </w>
algorithm s</w>
algorithm s,</w>
al ysis</w>
al .,</w>
ag e,</w>
af fect</w>
adv antag
addres ses</w>
addres s</w>
ad aptive</w>
ac l
ac cording</w>
abstrac t}</w>
abstrac t</w>
abov e.</w>
abo ve</w>
abil ity</w>
ab l
a y</w>
` </w>
_ i</w>
] }</w>
\ text{
\ sum
\ math
\ in</w>
\ bibliography
[1 8
[1 2
[0, 100
[ 26
[ 100
[100 ,</w>
Y ou</w>
X LM
XLM -
XLM- R
XLM-R ,</w>
X )
WordPiec e,</w>
With </w>
WebT ext</w>
W hen</w>
Vicun a</w>
Vi etnam
Use- case:</w>
U ses</w>
U se</w>
Tokenizer }</w>
Tokeniz ers,</w>
Token s</w>
The oretical</w>
TensorF low</w>
T5 ,</w>
T I
Statis tical</w>
S urvey</w>
S umm
S et
Res earch</w>
Regulariz ation</w>
Re producibility</w>
R obustness:</w>
R oBERT
R are</w>
R E
RE A
REA D
READ M
READM E</w>
R </w>
Python/ C++
Python/C++ .</w>
Python )</w>
PT </w>
P ro
P erplexity:</w>
Open WebText</w>
On -the-fly</w>
OO V
OO M</w>
O bjec
O N
Nois y</w>
Ne ed
N MT</w>
Mod ern</w>
Met rics</w>
Met a</w>
Ma thematical</w>
MI T
M eas
M arch</w>
M L
M B
LM o</w>
LLaMA )</w>
LLM s.</w>
L ic
L exical</w>
L at
Kud o
In clude</w>
I s</w>
I f</w>
I D
Hugging face)</w>
H igh
H ar
H and
H </w>
Google .</w>
Goog le</w>
GitHub </w>
GPT‑ 2</w>
GPT- 4
GPT- 3
F ull</w>
F e
F ailure</w>
Ex perimental</w>
Ex amples</w>
En tropy</w>
En coding</w>
E thical</w>
E fficiency</w>
E ase</w>
E M</w>
E LMo</w>
Des cri
Dataset s</w>
D o
D e
Corp us</w>
Cor pora:</w>
Cor e</w>
Con clusi
Comp arative</w>
CodeG en,</w>
Co mple
Character /byte</w>
Ch at
CPU ).</w>
C++ /
C C
C 4</w>
Byte BPE)</w>
Byte -
Bi as
BPE/WordPiec e)</w>
BPE/ Unigram</w>
BPE -
BPE ,</w>
BL OOM</w>
BERT .</w>
B y</w>
B igSci
B aselin
B )</w>
Apache-2. 0
An alysis</w>
Al so</w>
Al pac
Al gorith
Ad apt
APT )</w>
AP I
AI </w>
A t</w>
A fter</w>
A c
A bl
A CL
8 </w>
7 .</w>
6 .</w>
6 )</w>
52 2)</w>
50,25 7</w>
4 0</w>
4 )</w>
32 k),</w>
30 ,
30, 522)</w>
3 –
3 5
25 6</w>
2023 :</w>
2020 ,</w>
2019 )</w>
2018 </w>
2018 ,</w>
201 7</w>
2 :</w>
2 .</w>
19 9
1- 2</w>
1 :</w>
1 0</w>
1 .</w>
1 )</w>
0 s</w>
/ without</w>
/ char</w>
-reso urc
-L 3
------------------------ ---</w>
---------------- --</w>
- \log</w>
) :</w>
) "</w>
(e. g.,</w>
(TF </w>
(TF )</w>
(S ec.</w>
(S P)</w>
(Rust ).</w>
(R NN
(2024–2026 )</w>
(2024–2026 ),</w>
(2020 –
( “
( words</w>
( vocab</w>
( rare</w>
( papers,</w>
( on</w>
( like</w>
( in
( efficienc
( cite</w>
( Problem 
( L
( Huggingface)</w>
( Google,</w>
( ByteBPE)</w>
( BPE/WordPiece)</w>
( BERT
( APT)</w>
( A</w>
( 32k)</w>
( 32k),</w>
( 3
( 2019)</w>
( 2
"s oft"</w>
" b
" Attention</w>
! !
